/**
  ******************************************************************************
  * @file    network_data_params.c
  * @author  AST Embedded Analytics Research Platform
  * @date    Mon Feb  5 16:48:39 2024
  * @brief   AI Tool Automatic Code Generator for Embedded NN computing
  ******************************************************************************
  * Copyright (c) 2024 STMicroelectronics.
  * All rights reserved.
  *
  * This software is licensed under terms that can be found in the LICENSE file
  * in the root directory of this software component.
  * If no LICENSE file comes with this software, it is provided AS-IS.
  ******************************************************************************
  */

#include "network_data_params.h"


/**  Activations Section  ****************************************************/
ai_handle g_network_activations_table[1 + 2] = {
  AI_HANDLE_PTR(AI_MAGIC_MARKER),
  AI_HANDLE_PTR(NULL),
  AI_HANDLE_PTR(AI_MAGIC_MARKER),
};




/**  Weights Section  ********************************************************/
AI_ALIGNED(32)
const ai_u64 s_network_weights_array_u64[5265] = {
  0x33a365f8b66fb3f1U, 0xb79d7274b79046e0U, 0x36a1a8a8364c86fcU, 0xb7d36f6c37143d51U,
  0x371226ec3784b644U, 0xb6e64c96b703c76dU, 0xb6f2dd74b7b6d8a6U, 0xb6cd9f70b7232f32U,
  0xb7a06f523622faf4U, 0xb7474758b6f30620U, 0xb801e4cfb74d5a74U, 0x3782b9e4b755fb40U,
  0xb6eaec6835e633aaU, 0xb593039836996a3eU, 0xb76fad80b69400eaU, 0x3796a0da37adc3f1U,
  0xb7beb87235772200U, 0x372811f7b83b834eU, 0xb660bcc236c9b0b8U, 0xb6c7b84137952b3cU,
  0x375507f037ee7eedU, 0xb7ec2f32379ee3c0U, 0xb73f5d7f3777bb54U, 0x33fb300036993d44U,
  0x370bbbb2376319feU, 0xb7c1a202362eb230U, 0xb67435bcb724100aU, 0x36ec9d8bb75a1166U,
  0x3620ed3ab74166e8U, 0x3695eeb0b6841426U, 0x376d8776374faaa8U, 0x37589c9836a497deU,
  0xb5ca080537a316eeU, 0xb70ef808b5266900U, 0x37165ddab798d256U, 0xb7213dd537052a1aU,
  0xb7854cbe3595ca36U, 0xb71252be3759fa3cU, 0x37f32db3b571f5e6U, 0x3752dec435ff5cb0U,
  0xb51ab220378a73d6U, 0x3737f8a0b7516d9aU, 0x37347603b709628cU, 0xb6e1a4a6b51928b8U,
  0xb73981c4b5e8a530U, 0xb6a7700ab732c344U, 0xb6d26d4637551cb4U, 0x37396f3cb755bb2aU,
  0x36ca8148b782be5eU, 0x375d9ff2b75307c2U, 0x36e1beef37e01afbU, 0x35a0e086b72a03e1U,
  0x378a7df6b69406f4U, 0xb6c9da9836ce2724U, 0xb69fa9a93745c935U, 0x374fa11e36bbb988U,
  0xb7804f12b790d4b4U, 0xb73ded2c37496550U, 0xb57bfc08369206eeU, 0x37ac1808b70dfef6U,
  0xb6dab994b7150c2aU, 0xb74c998536ffad96U, 0xb69b07cd3744d338U, 0xb7dd07cab7d4c6d8U,
  0xb74e6ffdb61201e0U, 0xb6ce1364b720160aU, 0x381d0c38b6c3f2caU, 0xb66c0384375b778eU,
  0xb7ac2f69b7159460U, 0x360a5e9837679b98U, 0x37609f9c36e24fd4U, 0x371701d0372767dcU,
  0xb6ec59ea36a0e335U, 0xb6c641c2373e999dU, 0xb73c71943674fa94U, 0x35789810b69f1c98U,
  0x370e2559b5a8ec60U, 0xb78cce84b6fb5f2bU, 0x37ef5879b796b5acU, 0x37405833360f1998U,
  0xb756abcab7c15c66U, 0x34442300375d2cf7U, 0x371ccb69378210abU, 0xb3f745c0b75f74baU,
  0xb5d47a9cb660fadcU, 0x36c318103541e3f0U, 0xb7169352b7451116U, 0x375a1274370d750eU,
  0x370ef0fe378ad384U, 0xb70d0709b42b4640U, 0x35c028f0b5e14fa0U, 0x3728bc0937b63f88U,
  0x36327397b6bd4670U, 0xb7b868ab37586e4eU, 0xb732e8dcb77bd26cU, 0xb783e331b62c1620U,
  0xb7459b40b6c4f610U, 0xb6db4748b6fc5e26U, 0x372d140ab6cbb234U, 0x3769d5b437592a86U,
  0x378a61f536571392U, 0x3784fb68b722018cU, 0xb78becf1b690f284U, 0x37868404373dbf29U,
  0x3711ad4db73ea8b9U, 0x3714b3fab7ca729aU, 0xb7580423368315f7U, 0xb791ccea36d87e9cU,
  0x3789602f374fc979U, 0xb7297fdc36c33d5cU, 0x3692178cb664880eU, 0x3697faa7b423fc60U,
  0xb767b6b7b61f2ba0U, 0xb719f7be3782b75cU, 0x36a4ed0835fe0e20U, 0x37d4a196b60b8e34U,
  0x36a1ca4e37e536f0U, 0xb5bc87983608a38cU, 0xb780618837624822U, 0xb79af750b7e16575U,
  0xb7b3559237325026U, 0xb7cc94eeb789f955U, 0xb6a7cb62b5452f80U, 0xb72d3dec37a288edU,
  0xb7be925e3698a0ccU, 0xb79cbed5b74a29a8U, 0xb58eb328b680bb2aU, 0x3799921bb5fde330U,
  0x3799a50db6a452fcU, 0xb7b02cf0b7306b5bU, 0xb76085a437426bcbU, 0xb74b7c7eb5a7a2b4U,
  0xb715d88d3742dcf2U, 0xb7968fce365bc390U, 0xb79d65cdb7a799a4U, 0xb6c1cc47b7bdf63aU,
  0xb703d1dd3757a92eU, 0x373e56a43625adc4U, 0x3626b77337e64236U, 0xb78510143737ad87U,
  0xb6e00717b6fe5db1U, 0xb6086802b72d1936U, 0xb715fe08b786f756U, 0xb779b6ecb6f6d0feU,
  0x36c65bfbb7081d05U, 0x36cd9ac6b766ae39U, 0x3643c4a0b72e7f2aU, 0x367f5304b7812d0bU,
  0x369e012036cd167cU, 0x36ceab9137226f1cU, 0x363e027137beba20U, 0x3583ff88b6bb0dfaU,
  0xb7dd3808370f66a4U, 0xb7bec712383a419aU, 0xb4b2c330372c8246U, 0xb78e61c435406c48U,
  0xb74e10fcb78dad91U, 0x3744e5dfb7304de7U, 0x3738589f36cbe668U, 0x37e106c1b7819bc8U,
  0xb60fecbcb6968dccU, 0xb763c0c3b7afea29U, 0x37aa7c04380e971bU, 0xb7255b53b74fe082U,
  0x38277106b7757d2aU, 0x358950e0b71005d8U, 0x3681b296b78a8ae6U, 0x33b6ff00b648e378U,
  0xb8290fe6b7ab2bc3U, 0x378cb7d6b630f456U, 0xb79c26a237910d92U, 0xb76bc8af364935b9U,
  0x377b4e263710f3acU, 0xb60583b0b65704a6U, 0xb6728b0d378195d7U, 0x37cbb2dcb6e4b567U,
  0xb7830742b7c80281U, 0x36503a50b6555d5cU, 0x348dffc037c8e576U, 0xb79c979e375e03baU,
  0x37ad10afb6fff639U, 0xb75d0b69b565dcc0U, 0xb76058a1b7355bcaU, 0x371ccae0374c009fU,
  0xb6b916f7b687cc8aU, 0xb447f9c0b71a5532U, 0x35c52710b7b66e78U, 0x33c3ae00b6ca2162U,
  0xb74116bab604d580U, 0x370d3b1cb735dd78U, 0x342559e4b756818cU, 0x3752458db6f69efcU,
  0x3756205a360de99cU, 0x37643ff9b726be66U, 0xb6d174c3b46385c0U, 0xb5c346bcb66bafaaU,
  0x3789c80c36edd1aaU, 0xb6abdfb0b75bb560U, 0xb70a425337904aa3U, 0xb4e0e5c0354648f2U,
  0xb7a773b1b65f6934U, 0x37da475cb5d9f440U, 0xb7bc17ce37e21834U, 0xb6ac3df03728d806U,
  0x3756b328376e4e6fU, 0x3683a41eb70e98e8U, 0xb5b48316b618c701U, 0xb7685bdc3684602aU,
  0xb80edee337ebca06U, 0xb5d06fe4b690b07eU, 0xb7149c63b70546d3U, 0xb595e46e378a84bcU,
  0xb70fad79b6d6aeb2U, 0x36d8b81eb7e749f6U, 0x3581a26236e5bdc2U, 0x378ce3b0363cf68cU,
  0xb7931bfab7d1e625U, 0xb68056a6b63b217eU, 0xb60ee6b6375f9b04U, 0xb6cff33f3657ac3cU,
  0x36045d10b748272bU, 0x376ea3b5b71e5694U, 0x37a6f156b67e28f1U, 0x37742d4cb4741000U,
  0x35ce720cb2a12600U, 0x36bc42b2375a4ce0U, 0xb79e680a377e709eU, 0x37b2e270379e0ed4U,
  0xb68faf6eb77b0d7cU, 0x3749d7853791ab93U, 0xb766cad5376125c0U, 0xb735d527b73ec21aU,
  0x3704007737036b21U, 0x37b41650377eb9baU, 0xb60065c2365f4e64U, 0xb633e6c1b69a319cU,
  0xb703bf3235bcc652U, 0x374d2e12b790b295U, 0xb6902f91b706e32dU, 0xb5edc108b7921c90U,
  0xb803b559b67a85c6U, 0x37604d80b56e9344U, 0xb70cceaab7e742a2U, 0xb68f984a3660c536U,
  0x37481d00b6cfb1e0U, 0x3786fa1d37550f70U, 0x36abc0a7b771aa0cU, 0xb71402fab70bd59fU,
  0x37685d1935a71d08U, 0xb7264ddfb7c1a8e9U, 0x362ff39cb63d58d0U, 0x36a6533036df13b4U,
  0xb3efc9c0b769ad70U, 0xb62fe3ec37565778U, 0x36ff33ce3768eee3U, 0xb71f48de36a2dc32U,
  0x3729c0c4b7757ffaU, 0x35e8b6b0382a59f8U, 0x37e363b336aa9a74U, 0xb7267c83382619e3U,
  0xb77aeb6535330110U, 0xb79a5aac381f240cU, 0x37159730b62cc76cU, 0x376871c9371e8f44U,
  0xb54b6e0037e42730U, 0xb7d4f77c35934f08U, 0x37c01ec0b7542f7eU, 0x36089a6837659075U,
  0x37197e94b763702aU, 0xb7550239b76b5a85U, 0x3535ba20b790391cU, 0x3493ff0037b6c491U,
  0xb73135a4b6bd15ecU, 0xb8028453b69c09c2U, 0xb613a2b8b78b6314U, 0x371e7cc038187767U,
  0x37252551b6d233b2U, 0xb73724ff367f5768U, 0x377481f037763617U, 0xb656d06b36b038c8U,
  0x3665b1bd37988c62U, 0xb533f998b76200b3U, 0x374fd99937f23d0aU, 0x36dcc697376ed0edU,
  0xb80608ecb69b1d9bU, 0xb73438273664d982U, 0x378400ea37219db3U, 0xb7b81a513707e9e3U,
  0xb730856e37b265cdU, 0xb5a2db20372212a7U, 0x36ca7c2e35fc917cU, 0x36cbaa34b679957bU,
  0x374558d436dbc99cU, 0x3792bfb8b8012440U, 0xb7b30a7eb7890b0eU, 0x372f8e34374d277dU,
  0xb771baf1b70822abU, 0x370428b136e9c216U, 0x366c272d374e8f46U, 0xb7bf0c373531fcc0U,
  0xb7a502bdb6ccc563U, 0x3736480cb52ced5cU, 0x37a1845436e6a12aU, 0xb77937123790f4caU,
  0xb5330d3836260474U, 0xb6f6b896368e8950U, 0x37080b71b6f9c3b8U, 0xb7a9647db7918244U,
  0x36f49ad3b6994d7fU, 0xb751deccb5f03f2cU, 0x3655b3ea379bd9a2U, 0x3739cf0336a1d4f8U,
  0x36f7d05f3560e6e8U, 0x370b8ded368ab6c0U, 0x37150fafb74f8581U, 0x3604344138380899U,
  0xb714f6e8373fd0baU, 0xb78d15a235f5e544U, 0xb730aa1437598fdeU, 0xb6954026b7ea3be6U,
  0xb7915a28b582b4eeU, 0x3794fcb1b746afbeU, 0xb6cfa6efb788db63U, 0x37a8ef38b75194d8U,
  0xb7df94f6b74396eaU, 0xb6ff64b2b5e4d708U, 0xb7baf5743791cfcfU, 0xb6e87c3c372ff78aU,
  0x35e6055036aa74dbU, 0xb7843e8cb6dc7b4bU, 0xb75c9229b5562f78U, 0xb7863fb4b67f1756U,
  0x36d76e30b7970cc8U, 0xb76e97973719b8aaU, 0x37850dae3790e638U, 0xb5c38ccc35b85722U,
  0xb68b5755b770c463U, 0x361c188437047c34U, 0x37a85228b6512510U, 0xb77165a0b789638dU,
  0x3769acceb5bdeaa0U, 0x365f06dcb6908f0cU, 0x35a50670375c262eU, 0xb53af9d0b60fee3cU,
  0x361d3c3c37a7c4d3U, 0x369f75ea35dfbef0U, 0xb739a1b6378d061aU, 0xb6c40c8cb58c11e4U,
  0xb7b3ce48379c1442U, 0xb7819953378820d2U, 0x382b8f6c368657faU, 0x3753a9c3b77e3e32U,
  0xb6f995bab7e64ed1U, 0x36e4903ab7125d82U, 0xb6c400e2b7951e07U, 0x36571b3035f2cd18U,
  0xb7b2cd6337c28ce1U, 0x3502b2b4b6b8b547U, 0xb5bcbc07b70238f2U, 0x37651ae2b7959088U,
  0xb58e2aa8375d0b28U, 0xb7248556369f697aU, 0xb710c09cb7a04552U, 0x368e8b0f3771d1b2U,
  0xb7b80260b6bd49dcU, 0xb5a22238363d6094U, 0x38355bd7b7bc3f0cU, 0x361459dcb73a3185U,
  0x36b4e876b68eca61U, 0x36887992359cb438U, 0x3636642eb7799aaeU, 0x372a510b37ee42a4U,
  0x370e1015367adce2U, 0x378cb4b1b750e00fU, 0x362e3d2c37cdb36eU, 0x36c0a64336ce0784U,
  0x362668bbb6838a8aU, 0xb78507c236f36064U, 0xb7dd78e4b6b8b950U, 0x35b65b98b6b0e67cU,
  0xb72df4b6b78fd1f6U, 0xb6deb18935152170U, 0x34ce3df0b72c2096U, 0xb6955326374cef3bU,
  0x34beaf3036a66ddcU, 0x35961608b7b53432U, 0xb68f872b3637483eU, 0x37220f9234dfb020U,
  0xb6bdfc08b79a9e78U, 0x37c58a7336ce51a9U, 0xb7ce07c638032e1fU, 0x36a2e67c37c804feU,
  0xb802fee6378f2d24U, 0x36f71d5cb54bfd29U, 0x36a4c98cb7608fa8U, 0xb7bec008b662dc58U,
  0xb6ab5a6d374a6fe1U, 0xb600bf4c35ebe3f0U, 0x37682a81b58cb28bU, 0x37201d24b63c4f30U,
  0xb766375e351cb9f0U, 0x35b30d0436fdc7e2U, 0xb793b454b68be6eaU, 0xb53bf4a0b7520438U,
  0xb7761181b72a5e97U, 0xb62a24ce36ebbc8aU, 0xb6c4cffeb7843a00U, 0xb7b6c13436caf286U,
  0xb71576d636f20d10U, 0x36e9636a36973cecU, 0xb46c08e0b78697d4U, 0xb6ba9526b6b135bdU,
  0xb77b8fabb61a667cU, 0x375292a937c57f96U, 0x351fae80b7dfc922U, 0x37d4b120b6f06f0aU,
  0xb7aef5f5379b7e9aU, 0xb6228e97b6d43a6cU, 0x37eb7f92b5e0cf10U, 0xb78ef45e36d0d9daU,
  0xb777e138361e219cU, 0x362880bc35a4da80U, 0x35c0a4e0370e3da9U, 0xb68801bb37d7fa96U,
  0xb6cd2c8bb775a5a6U, 0x353fd10cb69ea1cbU, 0x379bbbc9b54136fcU, 0xb6f8a36137d2c3d2U,
  0x368757c634ad7820U, 0x36ff9ebeb6d51d27U, 0x334c14c03755c45eU, 0x374f4272b7a21c20U,
  0x3719eb7eb7093d5dU, 0x36c71f14b70ef3c2U, 0xb7958a0ab7278bf3U, 0xb798b5bfb8254dd8U,
  0xb72cee3f3792a8f7U, 0x38041061b662ef4cU, 0xb7075c0d379ff539U, 0x366fdbc9b6496a21U,
  0xb63a351e371127b9U, 0xb75c064cb71afaceU, 0xb61593f6b6e77939U, 0x36b9a51837969718U,
  0xb50b3490b650fb7cU, 0x36f1baa6359c7538U, 0x3758a1f3b6c712e2U, 0xb6df9bbcb7c26a92U,
  0xb72b2b2937173e2cU, 0xb77a11efb8155c51U, 0xb5026c4c3595de40U, 0x362c0ad2b6680bfcU,
  0xb6a3aefc378fb6f2U, 0xb7eb9098b64af0f4U, 0x354af9103679f57aU, 0x34a74fe0b7cd6f08U,
  0x375be822b65ad030U, 0x3754e533b78f05caU, 0xb5ffb778378f6d6fU, 0xb51ee99e3621adb8U,
  0xb7b806d5b7267506U, 0xb65b159a37c4e678U, 0xb7144ecdb6f8cd83U, 0xb63cef7b370520b6U,
  0xb7c83d3bb470ce10U, 0xb70fa712b6fe8948U, 0x374cbff8b7363f72U, 0xb66987b2b696220eU,
  0x371c489836644396U, 0x3739830236b34cfdU, 0xb6b75e403708a0e9U, 0xb79319c137a12184U,
  0x36a61d4fb722d0ffU, 0x37122c5f3519e630U, 0xb7debe50375be3caU, 0x3734bdce371c59cbU,
  0xb6b75b5cb783b471U, 0xb72fc5f737254810U, 0x34621fc0b8203cb8U, 0xb7d4d6f0b6cf5ce6U,
  0xb5455150b72444a4U, 0xb6e5724436c4b94eU, 0xb4fadbc83689fbceU, 0xb6b27172b777ce26U,
  0xb7e48e23359fdc38U, 0x360ff23eb6b542b6U, 0x3717c0e6b736f028U, 0xb7264dd4374b8ba4U,
  0x374b5646b6e5b59cU, 0xb7cc32413755d0b0U, 0x36671d6a36eda504U, 0xb8053629b6afd0cbU,
  0x3515d340b709ec1aU, 0xb739683a36885f9bU, 0x3759ab70373cb2b9U, 0xb770422a370c849cU,
  0x34bef24036deea74U, 0xb6b2fdfa37089125U, 0x370ecfe0374cf4adU, 0xb6a8ceb3371f075cU,
  0xb7dfda01b7357542U, 0x379d24d737c8ac6eU, 0xb71e84f2b781b82dU, 0xb77f9e69b5adc788U,
  0xb4e63da037661a9fU, 0x362f06d6b716452aU, 0x374a579bb7c2dbb5U, 0xb76575fd36c6f9ccU,
  0x37803146b65c6ecaU, 0xb64df9f837f3981bU, 0x37877c48b768b47fU, 0x377a796eb5d2b640U,
  0x3613cc5036f2199eU, 0x377f1444b6e89030U, 0x3789a6c6b709177bU, 0x36a3b1ae3757240dU,
  0xb5c8436036c69f52U, 0xb6ed46683418cd90U, 0xb6ba14b5b7312bc2U, 0xb76e0d44b62e6d48U,
  0xb7489b04b311d300U, 0x381867983645e691U, 0x374e6024b6d17e67U, 0x370feba6b6cd764eU,
  0xb784f62d3778b75eU, 0x370a6b9cb6b205a6U, 0x37150f82b72bdbc2U, 0xb720e284b6b073acU,
  0x36e2e6b436e80508U, 0x3720b6f9b61be024U, 0xb6bd449bb6e314bfU, 0x35efec26b6b4cd35U,
  0xb6d1eddcb6eb7f59U, 0x364d969db55ec090U, 0x3798f98ab80ea080U, 0x361abee0371599e4U,
  0x374200bc37a3b58eU, 0xb762b8d037bd144aU, 0xb7343c0ab50f8f80U, 0x34b7b24036e02015U,
  0xb751554b372022d4U, 0x36178cdc37b09685U, 0xb783c9dd371642d1U, 0x37c22bd6b738883bU,
  0x3632c406b78194adU, 0xb802d6113775a29bU, 0xb77d0c47b552e280U, 0xb4749340b750fb52U,
  0x36f764d6369bd2fbU, 0x36ee4b3236768322U, 0xb69ffa23b65c8208U, 0xb70185ccb769968bU,
  0x37d15474377e8adeU, 0x36dfb1da3761ee0eU, 0x369d98e0370ca021U, 0xb710eb31368d0c22U,
  0x37e8fc2037005be2U, 0x37d122eeb708dca7U, 0x373f691cb7a70615U, 0xb5ad70a8b716236aU,
  0xb641299436715584U, 0xb69d2c36b74adc23U, 0x36ecb0b935776738U, 0xb770ee7637b41262U,
  0x36f6e0c83743b347U, 0xb59f14f0b77e5de1U, 0xb7450d04b4e32b20U, 0x36927ebdb6598918U,
  0xb4da35c836079114U, 0xb8011c9637593d9eU, 0xb5f2f39136287c77U, 0x36f7d482b712cb03U,
  0x36b78b9836505470U, 0x371b0476b6d23564U, 0xb750d40db66f6410U, 0xb789efbcb7a246e2U,
  0x37c1b9cdb587e9b2U, 0x36789828375b02fcU, 0x36993f603766bbb2U, 0x37d134db34bd0540U,
  0x37eab23b3756cb86U, 0x37aed5aab779e3f8U, 0xb69df7f635cae0e0U, 0xb6dbf1bbb59e7df4U,
  0x3716b22e37d498b8U, 0xb7f2e5db37a7a0bdU, 0x376d0b81b629ab46U, 0x37beee0fb707fedaU,
  0x36c0d6ba36068a20U, 0x37987ce0b755e9e7U, 0x37c5ab4c3596d781U, 0x37848a4bb6c6f1f4U,
  0x36ab7cd837e33982U, 0xb62e5524b739f936U, 0x376eb76bb7289a29U, 0x37024ac9358d71fcU,
  0xb74b8cf237695a9bU, 0x370c4025b6df0351U, 0x37e1c8c2369efcbeU, 0x37840d443778dd38U,
  0xb60aee2cb7275e5fU, 0x359f9ca0b7ab1916U, 0x372efb20b78166a4U, 0xb724131bb70ce248U,
  0x36fcb00eb6dc3ad5U, 0x37a075d437161c60U, 0xb31c3000b769214cU, 0xb723bce4b566dd90U,
  0x37ff0c1a37690585U, 0x37e7e46cb61f9336U, 0x36b7f4fab53b8b5cU, 0xb783eb4c37a25f32U,
  0x3714153237d78a21U, 0x37dec329b7998807U, 0x36a2a67eb7183546U, 0xb7045600364a1a96U,
  0xb7968319b78b0b2cU, 0xb5417c58b7966584U, 0x37e0d66836398099U, 0x373698f037e32b18U,
  0x36a07580b7e78836U, 0x3636cf50b6de799dU, 0x36d7759c3795dd4aU, 0xb788ca32b6ed6098U,
  0xb77fd2dfb710a4e9U, 0xb5344740b417b580U, 0xb67642ca3794bc4cU, 0xb69286da3693d256U,
  0xb7e79476b70763ccU, 0xb529318036d56ac0U, 0xb75ffc3a3697efdaU, 0x36e50270b787b8fdU,
  0xb708d795b5bad526U, 0x37988e6937bc2264U, 0xb5aea2f43743817cU, 0xb716d97f37288cd7U,
  0x3795433c37d98e20U, 0xb7485c68b3814d00U, 0x37c17f44371178b2U, 0x36f4b817b7568561U,
  0x3839ac1938257012U, 0xb720890f35d69742U, 0x37c86612b61a4fd0U, 0x3751194e3740b8b0U,
  0x372df3c93678db18U, 0x3661f1f4b7cabad7U, 0x379d73e3374945ceU, 0xb7a8d61a35e6c014U,
  0x37a47ea637a3b73eU, 0xb7988be436e3d1daU, 0x378da40e37992404U, 0x36b7efa7378d4551U,
  0x36cdfd2f37ed39eaU, 0xb70b0940b7240d7bU, 0x372d3bdb37501e00U, 0xb6822b8b349c0380U,
  0xb706e570b766b7c1U, 0x37941bfc373373a1U, 0x3702e49b3743fe4eU, 0xb60055c8b6659d1cU,
  0xb72d0f6835f50b12U, 0x366a5616b73ad438U, 0xb76cbb703704f0daU, 0x34be2b6cb708c524U,
  0x37f3af353738aaecU, 0xb6dc79d737622b4aU, 0x3716673236500867U, 0xb7772f3cb78aa406U,
  0xb6ff0bed369dceb5U, 0xb64ecaa837b678b3U, 0xb75eb8ec36fbf2ceU, 0xb5ef5cd835100b10U,
  0x3773b34d3784d648U, 0x34566a80b727498cU, 0x35cbd8b0b749ab68U, 0xb79c8dc6b5ee1584U,
  0x349a16c0b7936376U, 0x36329804b6d703f2U, 0x364eacecb4602040U, 0x363b5f83b7333590U,
  0x36a46c6d36ca29c2U, 0xb71f49723680edcfU, 0x36b4eda236a3b54dU, 0x36aae3a6b6500d78U,
  0xb790cba2b6d5752cU, 0xb79f1a3cb407efa0U, 0xb7b0baac346ddc68U, 0x36a682ab358e85f0U,
  0xb6beb8b8b7611839U, 0x36fb4cc9b6eb5fedU, 0xb6fc8daab768fc84U, 0xb79ec9a336b8fe58U,
  0xb68e1280b69247b0U, 0xb764c870379dbee8U, 0xb714b406b7450fe2U, 0xb833f517b73813caU,
  0xb6fe2fd3372d2b16U, 0x379a7a1538125167U, 0x37251370361d0010U, 0x36c68441b706c706U,
  0xb7359c2a37cf0bacU, 0x378f93d0b7b5cf1aU, 0xb79ae78c361219b0U, 0x360e2eea37376c2fU,
  0x37e1b4aeb6daaa90U, 0x3621c20b371623f0U, 0x374addd037bdbabfU, 0xb7931f7e37d59217U,
  0x36dd1d9c378be115U, 0x37e683c8374d2cc6U, 0x379a011a3690543aU, 0x37833ac0b784f2a8U,
  0x375f0c453791feb7U, 0xb6e525fa36f0dabfU, 0x3799dd7ab6064798U, 0xb6042712b700580cU,
  0xb7c2423837a108f0U, 0xb723d5d137109429U, 0xb591a142b7624951U, 0x36348da037008f6eU,
  0x3712e630b77fc616U, 0x374d41fa376652a2U, 0xb680992eb796f319U, 0xb698bd5236829037U,
  0x3707e39c371f83c4U, 0x37d043c13604e472U, 0xb773397eb6bcc5f6U, 0x368277c4361c5830U,
  0xb6c17924b68e333fU, 0x371c8db436609b24U, 0xb7495e1ab75a51c5U, 0xb76a2e15b79a571aU,
  0xb4c5eba0370e97e8U, 0x374818d0b4c98bd0U, 0x378c5fe437093b98U, 0x3719295436b40ff7U,
  0x37edfee2b6f9bc25U, 0xb64cfddcb7313337U, 0x37bf9ec6b8367676U, 0xb7662a78373f804cU,
  0xb6e4cf7736d3086eU, 0x36cbb81035e78430U, 0x372fcc1d3780b0ccU, 0x377cc53eb70d9432U,
  0xb70e9cd8b6deca6eU, 0x375fa726368457a3U, 0xb75f7ebc36d10114U, 0x37522b9eb666c3f8U,
  0x372142edb5f2a92bU, 0xb7f7fc5d370a9cfcU, 0xb700fb08b6ed359fU, 0x37b13be5b7e7a507U,
  0xb7040462374fb04fU, 0xb75f3c9db700d307U, 0x36a885dcb78c60c6U, 0xb5fc154cb7c10719U,
  0x3742a483b6b44772U, 0x36e003dab65c4ebfU, 0x35d6b5a63798162cU, 0x349c24e0b77d0c1fU,
  0xb77bc92137ee2a16U, 0x370db4d2b31b5c80U, 0xb79f9d54b739f2a6U, 0xb73e126237123f89U,
  0xb7b49710b7525aa1U, 0x3631de62b42f3580U, 0x3521a0a0b7fc4a34U, 0xb11b280037962a69U,
  0xb71d01dd3784e55bU, 0x37995ee93658dc94U, 0xb6808832b6d3cbc0U, 0xb7d1c5a937926a63U,
  0x37178c18b792615aU, 0x37d69766b76aa3b2U, 0x3633a808b7230f81U, 0x377b16abb6f8c458U,
  0x377ecadcb57106d8U, 0xb7a8f482b6514bf8U, 0x375d218cb7140e7cU, 0xb73c17bd36f4d045U,
  0xb77385d4b738d84cU, 0xb63c34c6b5b6a978U, 0xb6c85540b7776486U, 0x3645bc28b7836beaU,
  0x369a5c83b6b159caU, 0xb7cad7c1b6335938U, 0xb581da6536fa575aU, 0x36fdc75c37dfe008U,
  0xb6835f9cb7457c0aU, 0xb7ea085c36f868aaU, 0xb588e670b7b6e626U, 0x36b69ca6b6e61276U,
  0xb6dceb54b687129fU, 0x34d92c88b6fc9913U, 0x378ad5b336a251caU, 0x36d19d6ab57c6640U,
  0xb6c0b326b7982206U, 0x37396021b7116a63U, 0xb733892f36ebaf3fU, 0xb529ec24363f1d6aU,
  0x37e0576eb75ec480U, 0xb79f9c86b46c6f40U, 0xb611948036b65f9cU, 0x371e01ecb74b5830U,
  0x353d5ad037421421U, 0xb6a7991eb7bb73c0U, 0xb709ab3db6c587e0U, 0x3658770837512b2cU,
  0xb6534ba035da66a0U, 0x37224ab6b79802b2U, 0xb7615364b69f12f2U, 0x370944e8379621d7U,
  0xb76872dd3682bcfcU, 0xb6b2e1d436f5c4e9U, 0x362b78d0b72573b9U, 0xb6684bd0375d6edcU,
  0x37deee4db77b15bdU, 0x37cbe97c3761228dU, 0x37cd0e1cb7ad9c30U, 0x34cd94503719f60bU,
  0x3628cd1a375d7504U, 0xb7673ce037868e22U, 0xb7dfebd6b720d485U, 0x35a6af6837c1eb1cU,
  0x375201a8b782c3f8U, 0xb77f566cb749a3b2U, 0xb72e2702b4055b00U, 0xb7b4b2d937b5b3cdU,
  0x355d9080b7109960U, 0x36b322ca364b8673U, 0x37096bb2373a95b2U, 0x369e0348373d323cU,
  0x375f8d8eb799c59aU, 0xb774f372370538a9U, 0x37460824b79dca6cU, 0x376130dcb6af16e2U,
  0xb635b0fc379491f5U, 0x377d529a37b75404U, 0xb784c467b6b29363U, 0xb5b91ac8b720ceecU,
  0x36e0495837414228U, 0x37a897cfb78cf9d1U, 0x360e5cf3b4b5fb00U, 0x37581ddfb6828bf1U,
  0x3780de34b76a80feU, 0x37130be13797b8e8U, 0x35b2444cb6cd554cU, 0x36d1db7f379c9ef3U,
  0x378c5c50b7671aebU, 0x377faa4337b98630U, 0xb71e8fd8b740e79bU, 0x36f53176377e2aa4U,
  0xb71ba5a43665d474U, 0x353b2c6c37591715U, 0xb7c243abb7acf64fU, 0xb76398dc37ad60b1U,
  0x3729610fb665694cU, 0xb6ff9118b7616d5aU, 0x3669492ab6df603dU, 0x36c4dd04b63b4eb0U,
  0xb5c0994eb70042c3U, 0xb78fb795b68285a8U, 0x379fa9d7b793b6f1U, 0xb74a6e48b77972edU,
  0x3741a19eb660f17bU, 0xb645f6e236509548U, 0x3621370bb6b86a61U, 0xb76adddd371a9e8aU,
  0x37758b12372964a4U, 0xb66fefdcb7be02ceU, 0x3613f8ba374b482cU, 0xb61ce43bb5045730U,
  0x3640d7b43703964cU, 0x3754c71637a08918U, 0x364ed30437e528a1U, 0x34b67048b773742aU,
  0x360838aeb6b3f10cU, 0x3661e98a373ebce1U, 0x36dcd9edb7d8b8c2U, 0x3766d056368daee3U,
  0xb7284bbd374e0d8cU, 0xb7304463b7712dc8U, 0x35d37c683560bbb8U, 0x372e6184b7379487U,
  0xb44f6700377c6279U, 0xb766094f375ee515U, 0xb6516f5837820450U, 0xb5c30268b78bac9bU,
  0xb7173d22374d031bU, 0xb6d66f54375afb3eU, 0x37163bd2b74ed8e5U, 0xb6ca98e1368405aaU,
  0xb799926937c8ecb4U, 0x3714ecdc37d631a2U, 0x3647a216b7120ca2U, 0x36f5ea5d379bd44dU,
  0x354b7800b7b79207U, 0xb60afc84370d86a4U, 0xb6dcd6d2b51bc3a8U, 0xb73cb556371ee656U,
  0xb743520d375bb073U, 0xb75d3b8437be57efU, 0x36d75b11378f9448U, 0x36b8ccf8b76b0abeU,
  0xb7dd46b7b697b764U, 0x368c4856375f60baU, 0x379ce73f37789013U, 0xb69503293828c453U,
  0x363de268b6ed6404U, 0xb5ac8c78b4ff6100U, 0xb701f3153770efa2U, 0x35d169b036d817b2U,
  0xb6a00408b74fcf82U, 0x377f63b23772954dU, 0x370fc3a1b6a36bacU, 0xb736e4133722500aU,
  0x37459f8bb72b003bU, 0x3546e240b7b4ed3cU, 0xb4ca28a4b7456ae8U, 0xb7709706b79edab5U,
  0x3689cd2bb77fcb65U, 0xb70ee22036d6a48fU, 0xb6f3e9deb7750bedU, 0x3793aebcb78aec2dU,
  0x36c8f32035d33e7cU, 0xb5b6a08bb74f5ec4U, 0x3699ce90369c9bbfU, 0xb7a088a2b7a4a442U,
  0x36c41dd0b749c8e8U, 0xb6575dce363f76d1U, 0x36ff169eb5da8430U, 0x37052e5e373ad118U,
  0x359e4588b7e0df50U, 0xb7713d8437067b49U, 0xb79c970234f034a0U, 0xb7ad47bab6e0b23aU,
  0xb7847364b7998f8bU, 0x36b9ab2eb6fa1dc8U, 0xb75ccaf736df5e40U, 0xb7bd68b4b741c4bdU,
  0x34f12dc03775c0cfU, 0x36ee789a351663a4U, 0x376a69893790812cU, 0x379bfdaab7cbe105U,
  0xb71a2a0136bf3055U, 0xb71d8ffe3647353aU, 0x37e67b7c3787302aU, 0xb702e78337364194U,
  0x376e85e2b70510c5U, 0xb7a0c96a3804a46eU, 0x378342c6b6b4ccf6U, 0xb7250c58370c804aU,
  0xb7e30efab627d8deU, 0xb7ebfee13797d452U, 0xb6b3cf1cb7e17f16U, 0x370f37c2b7436348U,
  0xb64b22d5b654e4e4U, 0xb6256ea2b640ff4cU, 0x3712d2ffb605c658U, 0xb697525cb78a8c9aU,
  0x378087643780b48dU, 0x372b62bb33d32f20U, 0x375f3307379aa9deU, 0x37a1805db7bb9899U,
  0xb741334a3710c965U, 0xb539330cb69dbee0U, 0xb7ed22b9b8030795U, 0x374f2820b7e912d0U,
  0x377bffb8366621beU, 0x3756fcacb60d19f6U, 0xb7a9e5d8367761d8U, 0xb54d004036d563e8U,
  0x35b6f76c366abf46U, 0x37a940a0b7457f11U, 0xb7647853371b1de4U, 0x37091891b76b3ee2U,
  0xb7d3c7c23755a2a8U, 0x3738ac0c3710b460U, 0xb7273e95b75b73ccU, 0xb630ec7fb8244bd0U,
  0xb75ddc0ab741db91U, 0x3723266c3650b1e4U, 0xb71acecb37e52b18U, 0xb72c0c8e374b4295U,
  0xb7ed2c5f3791aaa2U, 0xb74bf2bc372f1d86U, 0x37ca7313b5e34e78U, 0x36878052b787d336U,
  0xb7cd28f8b4f5a6a0U, 0x376c168d3795b850U, 0x34e25530b611a053U, 0xb73cf574b5ea0c34U,
  0xb76ba42eb5b8fd80U, 0xb601048c36d3bb8cU, 0x3710c8de375377bcU, 0xb74ec5cc356ed230U,
  0xb6fd1d0936ff9ec1U, 0x371511563795cf0aU, 0x353dae60370f27b2U, 0x359a170ab77b2d12U,
  0xb7902c20377578f4U, 0x369fe09bb741e768U, 0xb735fe50372a1688U, 0xb6d43590b7c8064dU,
  0xb6e50bce34de3380U, 0x372ec311b7e6ba5cU, 0x377a8bd5b6f54eb3U, 0xb58aa695b718a98cU,
  0x375e8edc362992daU, 0xb7ada88235be6e20U, 0xb78b0416b781777cU, 0x37844885b7a099baU,
  0x37d0ce9cb782b46cU, 0xb6cc0d2eb711beccU, 0xb606aeab375654d6U, 0x3717b5743721a2ffU,
  0x35bc55f8b7b1f2f2U, 0x36ffd7f1b702d5c0U, 0xb4427300358a67a0U, 0x373a5f3eb778d7d6U,
  0x35cc22ce37ce600aU, 0x36b85c5237677bcdU, 0xb51c8d603700a78aU, 0xb6acd40937dc5b09U,
  0xb67c1d74b77470eeU, 0x34f79b90b6e89fadU, 0xb6eb71a6b796faaaU, 0xb6aa6aa7b8317623U,
  0x3769189e3732a6c7U, 0x37d245a3b7df0df5U, 0x36f28aba37ce418cU, 0x3816f6acb7ae0119U,
  0x3757987eb765e6f2U, 0x373f2e9a37827971U, 0xb58aae50b67b5074U, 0x372a7160b7519488U,
  0x3665c798b769d695U, 0xb71121aab6eed1caU, 0x36eda830b7959cf7U, 0x364545a4b759ce04U,
  0x3753a4b1b54fd710U, 0x35763810377dba16U, 0xb76d641cb6756656U, 0xb5ef4b503794454bU,
  0x370d33e9b5bd5db8U, 0x372ec2a235d11608U, 0x37b293243515df50U, 0xb7924a5a36d3bedeU,
  0xb64bc8da370db5cbU, 0xb676ee5e36bb9960U, 0x37139a5cb7acfdc6U, 0xb714c3b635c1c7c4U,
  0xb7dfbf48b79bd994U, 0xb6be6bc936c5cc8aU, 0xb698898a374d845aU, 0xb6a47ae9b8210461U,
  0xb780684b342cfb10U, 0x36819d133785ecb0U, 0x374b32fc3745f85cU, 0x37885817b33371a0U,
  0xb8320ad0b6689d9cU, 0x36e9dcecb6e8e689U, 0xb7875af4b77a325eU, 0x371135d2b7875d2fU,
  0xb805da82b7cf9731U, 0xb7254fb63744f5c8U, 0x370461a6b78ee2a7U, 0xb6733f1037a9f68bU,
  0x353a17a0378a7ba3U, 0xb70057b5364862a8U, 0x34cd6368b7e7d5fcU, 0x3761a3a83736a3a9U,
  0xb7072076b6d23602U, 0x372af3ba36faf377U, 0xb4b14968b53e5819U, 0x36f643d337b51467U,
  0x35ab8e3f377f764dU, 0x379f5b3b3697b5bcU, 0x36ba938036c80adcU, 0x37b7fa4f353a9490U,
  0xb6310978b7289b87U, 0xb74434e9b5642990U, 0x36869ca2b5e325ccU, 0x3767a2b4b6ff7b01U,
  0x366e5c8cb674b2e0U, 0x36aa5a42373dc8a8U, 0xb784cf0f3731c15aU, 0x375771cbb7893758U,
  0x3703fd28362eef74U, 0xb7dfe552b778d778U, 0xb5dcc21cb753fa53U, 0xb793587836914424U,
  0x3709008237cb668aU, 0x36bd115037d22998U, 0x37596f3eb6f78d76U, 0xb7a37f4d372e5bb4U,
  0x3484d920b5d167acU, 0xb69a9020372769c3U, 0x35abfa80b70c31e3U, 0xb6d06a82b6a8e4dbU,
  0x3762f630b7aa6d68U, 0x361efbd4b73bd656U, 0x36a71c6438292d87U, 0x372971d6b62850e0U,
  0x3745650637380658U, 0xb7827edcb748abe6U, 0x3774ca7b361e2074U, 0x3737f670b654d1d4U,
  0x37659587b5f4da88U, 0x36ac5ab435983500U, 0xb799f3fc34b57340U, 0xb72ee7d2b7462889U,
  0x35e96192b70e91e8U, 0xb815e20ab4fbad40U, 0xb7921a6cb7703399U, 0xb78da0a4370b75c2U,
  0xb7749fc63707e1acU, 0xb6b71b34b6a168eaU, 0xb74ab506b58c3398U, 0xb7287cde37a5596eU,
  0x3753daae37c011aeU, 0xb7802b71b7c24335U, 0xb73100c8b7a35b76U, 0xb78582cb37c9c902U,
  0xb6311cdc36c941f8U, 0x3787369a3672fa65U, 0x37b0fedc36f6fe56U, 0x358cead0b6fea812U,
  0x37d9fff937bb9698U, 0x37732b593726722cU, 0x37edd3a0372b540fU, 0xb799585eb7c945f0U,
  0xb6a7b348b6d8ccebU, 0xb3485900b7063d76U, 0xb7102abb33ae6800U, 0xb6c012d837296409U,
  0x37e58bc3b5a96f50U, 0xb6762630b50d2920U, 0xb61113f8377a47b0U, 0xb7557a0cb63f7cbcU,
  0xb72ae28bb51253bcU, 0xb799a982b751f471U, 0xb64fcbf8370358d7U, 0xb615148037a3613dU,
  0xb7a9f716b72cc4d4U, 0xb70a580d35f1ffb8U, 0xb6b3aeca36aed69cU, 0xb7ac7ba0b7ac35d5U,
  0x37170a0bb77c5e78U, 0x36c280a837b4d864U, 0xb6a206323633f0deU, 0x372d97e4b75dd0baU,
  0xb7461d66b76a0f60U, 0xb7f034c6378f5a4bU, 0x3740994a37311d55U, 0xb755d37037a8a79aU,
  0xb663c740b6fe4d44U, 0xb780751cb7952ab0U, 0x3653bffeb718bfe3U, 0x37d83e9bb6c512b6U,
  0x37a8489d36db3a74U, 0x34aaf72037808691U, 0xb70a4430b5d6e46eU, 0x375bbba7380a13abU,
  0x37e049843731c7a4U, 0xb78eb16bb6a31e6eU, 0x35ced2003706e359U, 0x36204554b6b3b5d1U,
  0x37188873b735021aU, 0x37b68c1e360a1720U, 0x370a2fd7b784fc3dU, 0x378a0fb4b7b73e62U,
  0x35074848380e18c9U, 0x36a98bf63833a615U, 0xb6a30a4bb6a264c4U, 0x3717bb6e37333dbcU,
  0xb5b18d30350afbe0U, 0x3807d810b71e8092U, 0xb7838bae37a29e2aU, 0xb750232eb69635cbU,
  0x373feae8b75093bcU, 0x36bc37f6333fda00U, 0xb737d55435cb0ea4U, 0x37071bdbb686166dU,
  0x34188c40b784d669U, 0x3669420c37a8853eU, 0xb740381436fcc4e1U, 0x372e19b0b731b3cbU,
  0x37fa3a12b75df89cU, 0xb79daa563444d7a0U, 0xb4a4c5403729aafeU, 0x34e81d90b797807bU,
  0xb76320c6379250b2U, 0x34c25980b700c512U, 0x372937b0b664554fU, 0x379f804a37194fc5U,
  0xb7097e44371d2b1aU, 0x36c64f57b7059136U, 0x3747023fb670f34aU, 0x36ef3580b701773aU,
  0xb7125d55354ad5f0U, 0xb5b093d336d476a1U, 0x379b5608b6bd2c2aU, 0xb4a255fe37341218U,
  0xb6226f2c35485c08U, 0xb786f354b7bd016eU, 0xb7a9265ab7c2b474U, 0x3778b8b1b7cd4145U,
  0xb687c7743793f60cU, 0xb78403ea37ecba51U, 0xb6286034375eb9a5U, 0x37126f46b634bd35U,
  0x379829fdb79874e9U, 0x37d2e971b6f75772U, 0xb7616f8ab7319a78U, 0x341c1fa0b7a5cb94U,
  0x36b0e1c5b60285deU, 0x366e20d837c79d30U, 0xb70b56deb7409927U, 0x36083fecb739a03cU,
  0x37155722b60d3a42U, 0xb5bd9808b74bb778U, 0x3797a7f8379c685eU, 0xb79027fe362cf758U,
  0x3737500db6f7efc2U, 0x36805e0937b5d4f9U, 0xb70fbb49379d37e6U, 0x350b7e90b76cd1eeU,
  0xb5f36d30b4a5fdf0U, 0x371c8c8cb7321830U, 0xb739abd637877880U, 0x360753a0b5841a10U,
  0x376ef767b7d906d3U, 0x37701d9b36ac61a0U, 0xb70e5debb5145f30U, 0x363bba84b3914600U,
  0x37a155c9361e6e9dU, 0xb6c1e35637baa3baU, 0x3711d284347e73e0U, 0xb7652f65b759d775U,
  0xb73dc187376a2b72U, 0x37b5c0cdb7f0e17aU, 0xb7aaeff0b794109eU, 0x36fe4bcab7d3a39aU,
  0x37290124b783f668U, 0x36d0840ab716268aU, 0xb70b204637411662U, 0xb708b831b7bde462U,
  0xb6e2999a3626a3d6U, 0x36c39bd237b18be4U, 0x37dbade63759434dU, 0xb738776db7147216U,
  0xb7ee7fd3b61214c4U, 0x37044c83b79e2816U, 0xb79d2156b6ed83a4U, 0x37957771b68acd88U,
  0x375a328e36e0ab38U, 0x375a96a4b73ccc2fU, 0x3745e3f0b7b4e6dfU, 0xb61fda20b75418beU,
  0xb7747848b789c4ebU, 0x382569a63613a1d8U, 0x3779e07636b6c668U, 0x366607b5377a1606U,
  0xb6dd3ecf37283a54U, 0xb73eaa72b7280ac5U, 0x374290bbb7c9369aU, 0xb6f41826b758da32U,
  0x36e5bd74374c9db1U, 0x36c14e48b7dedebaU, 0xb71de82b372b872aU, 0xb4b7e0a0b718c1ecU,
  0x35e61ed036a8f1deU, 0xb6b4b2fcb66e3abbU, 0x373b5db2b72bf8deU, 0x372d718036455864U,
  0xb6ef36dc3785a0c5U, 0x37919b13b777ac5eU, 0xb7d2869cb6347367U, 0x366fb1d336376e4dU,
  0xb504f11035ff84b8U, 0xb71c73a7b606d065U, 0xb50a3e40b5a71db4U, 0x37325d363785c870U,
  0x37307124b78533aeU, 0xb7ca03b9b6038f7cU, 0x36f2a7de376f8a0bU, 0xb7732f243652bcf8U,
  0x378c3799b6280868U, 0xb7133306368af092U, 0x3707628a378b4f54U, 0x37b19b8136e4f33cU,
  0xb78121a1b33a3d80U, 0xb6c3ab1cb4eec458U, 0x3740b156b34ac8c0U, 0xb59654a036dc8766U,
  0x37cee9a5b6f66813U, 0x370d040b3792a780U, 0xb785c660b60ea792U, 0x367ebdd4b69ecee0U,
  0x36ba1874371168e7U, 0xb6afdcf137986710U, 0xb767431a36047a58U, 0xb77943e1b5957db0U,
  0xb74e54c436299d68U, 0x36e10ffc3717bfa7U, 0xb7420ef7379a8bdcU, 0xb6208b8637162430U,
  0xb6a6eb74b69d26e3U, 0xb61a4d40b5970a68U, 0xb5e59e28b77de297U, 0x36963e0c3759d2b9U,
  0xb71552c1360e2e6eU, 0xb734ec263759a42aU, 0x359fca00b74f5fe4U, 0x361ef96236f7d04cU,
  0xb6b15751b7375c6cU, 0xb548b2d535969e70U, 0x3738db51377dd0e4U, 0x3825a2ea375dbc46U,
  0xb6702b333835bb48U, 0x368c4cf8b729ffc9U, 0x370aec9736a9b82cU, 0x34afad18b6e08800U,
  0x36882cbcb691a780U, 0x37811cf236dbdfc7U, 0x3591b595b788415fU, 0x3782d636b7339f46U,
  0x36f10a8ab530d5c0U, 0xb75aa1dd368a0d1fU, 0xb624120036b612f9U, 0xb7c4332eb5cf5ae0U,
  0xb6e30250b7d298beU, 0x34e53d603520ed70U, 0xb7b553e2372b2ed2U, 0xb689ef9ab62e4bfcU,
  0x37aead163791d32eU, 0x37a7441ab7757465U, 0x37b40086379170bcU, 0xb6a9d568b79a9fccU,
  0xb73f46a9b660e478U, 0xb6b744e8b73c80c7U, 0xb759cfa437011464U, 0x3778beac3604c1dcU,
  0x370e1344b7b2136bU, 0x370cf59eb73eb570U, 0xb7c5fc723751e544U, 0xb7864aea374a685eU,
  0x3708eafa375d1420U, 0x36914df13791a381U, 0x37213e15353defa0U, 0x3756f964b7768910U,
  0xb7176852376efc68U, 0xb5ae0c58b7552412U, 0x34a7e3e0b7edf414U, 0x37a980bdb6c32ccbU,
  0xb7622e5c375646fcU, 0xb6c3f304b8198c59U, 0xb52f6bb0b7111cdaU, 0xb7b6138c3703014eU,
  0x370e6298b701d306U, 0x345972c037ce0ba3U, 0xb71abac2370f5683U, 0x37a3ed60b75e84b3U,
  0xb71095b5b66458a8U, 0xb7104661378248ceU, 0x36eb8a3e36fc4becU, 0xb44846c0360b5614U,
  0xb704671c370a7974U, 0x3698afec36d78fb3U, 0xb7cae2cbb75ca294U, 0x3795c8b535b936acU,
  0xb490c1c03693465dU, 0x37494e4ab5c2b340U, 0x36e44978b79867a7U, 0x3717100637c4bcd6U,
  0xb76a72ffb621c3cdU, 0xb6041fa0b692b3deU, 0xb832664f376630f8U, 0xb6b80952370f2082U,
  0xb7c90576376d0a5fU, 0xb6e4435936a2cad8U, 0xb6d209a5b7428186U, 0xb825daaeb6fddc2fU,
  0x37b646fc37800a32U, 0xb5d36a80b70aeb11U, 0x370d0d37377b818fU, 0xb5206180b730af88U,
  0x341229f036947fbdU, 0xb747b24637701b08U, 0xb71fe202b7b83b4eU, 0x3799778136bea274U,
  0x37bc8cd2b6dc072eU, 0x36d2abeeb6d9e505U, 0xb6179e4a375e985eU, 0x36d44aee3781e54fU,
  0x37c1c91d3690ed84U, 0xb684dd4e376893feU, 0xb648ee90370ca99aU, 0xb7504e27b755f911U,
  0x358c954037a24e9dU, 0xb731df5cb5f205e8U, 0xb7b466ac37e7c1c6U, 0xb687d926b75ebe4cU,
  0x37135de1367e4828U, 0x36dfc22836f1e0a9U, 0x374067f4b69ee3beU, 0x3770050137e7bbddU,
  0xb72b4988b7244185U, 0x37a164d8b718dbd8U, 0xb6f056cc37e2a746U, 0x3623e62eb6864f41U,
  0x3606b20c36a9461aU, 0x37da7d9a3646f336U, 0xb7369e703791c858U, 0xb652b61cb7aeb354U,
  0x35a58c90b71b5628U, 0xb7622019b768452aU, 0x370dd136b78831ddU, 0x35c08e05b6301480U,
  0x3734558437131742U, 0x360b4225b7b6b006U, 0x35e7a10c36e77c60U, 0xb694d9dab6e2144eU,
  0xb719cfe536361714U, 0x376abfceb71a50b2U, 0xb775f75635940f0cU, 0xb796e66bb6dd39f9U,
  0xb76b0944b712e9dcU, 0xb788990237094414U, 0xb76a6206376a0de5U, 0x35d80db4b73aeb40U,
  0xb7e27fee37506999U, 0xb70a30b736ad4b4bU, 0xb7629eccb61054feU, 0xb6d95c3037a8d5f4U,
  0x36bd9eceb764bc7cU, 0xb7606fb83788a87fU, 0xb3dc64c0b7598078U, 0xb70ca868b6acd1fcU,
  0xb79b0a08b6e757eeU, 0x37149ec037b0d31dU, 0x378ddd4eb779dbc9U, 0x36262540377432f8U,
  0xb748f365b50e3d20U, 0x361d84f8b58130f0U, 0x37511978b69c55e0U, 0x3748d519377ca7a8U,
  0xb76bcbcb37ae3338U, 0xb77698d1b791639eU, 0xb59d050c37cea369U, 0xb6897348b6818675U,
  0xb66f2cedb773c110U, 0x375bcd9037c9b422U, 0xb6945390b5e5f6a8U, 0x37779e3f346a3cf0U,
  0x3671a04836c47f14U, 0xb78280b6b60880a4U, 0xb7885f2a36de9f60U, 0x37156a8fb78cfa83U,
  0x353f3570375caf0fU, 0x3685231437215108U, 0xb77e59a8375401d5U, 0xb6b232e0372c0f1eU,
  0x37504bd037025639U, 0x37595e9837293ff9U, 0xb832b686b6750406U, 0x37a7d914b521e2f0U,
  0xb6bc1802b64d4273U, 0xb760e10cb2ece400U, 0xb7559aac36736748U, 0x36bd9236b7da2a09U,
  0x35dfd7e0b5f43ac8U, 0xb6bc2515b5f5669cU, 0xb76c0f54b6ee4c07U, 0x3685c126b62f21e0U,
  0xb6ea5798376556ddU, 0x36a4b9103792ba7eU, 0xb8033257b638dc7eU, 0x360c2425373130d6U,
  0xb7fb06d037a6bd70U, 0xb729a0d0370795f9U, 0x37e07340b6d17c5eU, 0xb7507655354cb6f9U,
  0x378c1eaab7229778U, 0x36ae922fb7d2e63eU, 0xb5a10f80b5880517U, 0xb5743ae837ce02edU,
  0xb6666df0371dc1a3U, 0x36d9558135976778U, 0xb73e60e6360673acU, 0x3715dd073777be0aU,
  0x36ea02c2b6d7dd0eU, 0x37d0b7cbb6aefb84U, 0xb7373170b7c13d88U, 0xb7b7f716b6f93b08U,
  0xb681aaa6b7c9da7aU, 0xb66717e037a400ebU, 0x369cc92337ebd836U, 0x37aeedd4377a482aU,
  0x35bab5f036b555f2U, 0xb6e456dc36810a84U, 0x374dcbbd376d5778U, 0xb710049eb6464152U,
  0x3361fe00375314deU, 0x374e8c7eb78a6ae8U, 0x36f163ccb7c39348U, 0x36ae1df8b7272b76U,
  0x35fdf158b795c2ceU, 0x3693a87b37350960U, 0x37a27e68b75d3f46U, 0x3736dcb437e4b0c8U,
  0xb7cc209035d4ade8U, 0x376838bfb56f1a68U, 0xb73c3852b6f61811U, 0xb703bef637888a55U,
  0xb71bad89b7a24066U, 0x37578bd2b780ba48U, 0xb7957aef37b49ff9U, 0x379b141935985054U,
  0xb75aa37cb5aeb37cU, 0xb65d9e703784b105U, 0x36964066372cb5e1U, 0x38330ef6b78d7364U,
  0xb52a4a5034710840U, 0x3772af5ab6903f42U, 0xb6aa56acb7ea21a4U, 0xb759dfc436f9f072U,
  0xb746ea79b78c3e40U, 0x36177880b735af81U, 0x370f56cc377e12ccU, 0x3753a85e3707eda6U,
  0xb6a47f4133bb3180U, 0xb6535ab4b6eaf025U, 0xb74c30deb72632f2U, 0xb76ee00835ce9fd0U,
  0xb57209a8b7a86f0fU, 0xb786d83eb70fd055U, 0xb7c6b72c375bade4U, 0xb7c56250b7abc66eU,
  0xb6a11cf2b70e0ff6U, 0x37b51fee37843b0eU, 0xb69a69e4b7ed0a18U, 0xb7e61b1236ed5938U,
  0xb71c8a9036c8ec0eU, 0xb738a4dab655909cU, 0x37f624a03555f9c0U, 0x37073d1eb4f80d22U,
  0x3707967f363ae17dU, 0xb6d89b5837470a3aU, 0x36ff0a6fb79a210bU, 0x373010d936af8d98U,
  0xb79a9b65b6f81dc4U, 0xb67d688837fc0996U, 0xb719d97cb6ccf8baU, 0x367a7f14376eff97U,
  0xb4f23dfc370b4988U, 0x369e8096b6a2c88bU, 0x36cdccfeb7406be2U, 0x3759215436e44d1cU,
  0x373f2e773708b6cbU, 0x37727025356ccc60U, 0x37f289c6b5b6ad10U, 0xb790a49536f0e7e6U,
  0xb5c39fa4b5271648U, 0xb6b3ceaab79f358bU, 0xb77349ad379d82d2U, 0x3555c634b7269a17U,
  0xb7a01de7b6e42461U, 0x36bc0060b7769747U, 0xb77851b9b6fed67fU, 0x379d4bf6b7723370U,
  0x36a19c2436cf5a96U, 0xb5fadac8375fd50aU, 0xb752a91eb74b39f0U, 0x36b42513b5c6a34eU,
  0xb731d93836f43620U, 0xb58381f8375b0ae2U, 0x37a951a336059820U, 0x3760426237337c4cU,
  0xb759c832b7c669d4U, 0xb7f55a33b75149ecU, 0xb7602802b7907762U, 0xb6d98a4a374daa4aU,
  0x3707947736f50baeU, 0x377761a8b6b04428U, 0x373093eab792fe50U, 0xb68e4ceb37343abaU,
  0x376ca2c036dde912U, 0xb690bfb6b61aea08U, 0x369fac61b751fdaeU, 0x37710c95b7b34336U,
  0x36699a50368b2baaU, 0xb7074286379150c3U, 0x375e8b54b7ee8eaaU, 0xb6b5c2e3374a14c4U,
  0x37a5d2ac3690123aU, 0x3697186ab79b7816U, 0xb75558ce36e5873aU, 0x354389b036d53530U,
  0xb79073d433b5b500U, 0x37711f803645a250U, 0x375f3b7bb71e6180U, 0xb6855460b7c8f028U,
  0xb786f86036a05f78U, 0xb63b2dabb7667825U, 0xb71996afb7c72b90U, 0xb793d50b37f1bc5cU,
  0x36abe9cdb752899dU, 0xb5cf5ce83728b09fU, 0x372f6d77b4ecef10U, 0x368c292c37304fb2U,
  0xb66a0450b679a75aU, 0x36013eb435baac48U, 0x37d6d3f2b7807c44U, 0xb7973ea8b69f7778U,
  0x37b141fa372ef017U, 0x34d81ce0b6a4eab0U, 0x36527b44b750d228U, 0x3806f3d434cdbffaU,
  0xb75220d936a3366dU, 0x3774332fb758a586U, 0xb3b3a9a03752c7f4U, 0x37837f0d36f69f20U,
  0xb7910ff1b622df90U, 0x3528644037a63019U, 0xb7755a7537573316U, 0xb6af7d1e36504317U,
  0x371d2abcb6936f22U, 0xb609fec2b705285fU, 0xb749468e36a7960dU, 0x37b5549c374a8620U,
  0xb697e1583733428cU, 0xb6e66cff37935548U, 0x374417f6b66f6d58U, 0x36173e7837139a84U,
  0xb40db1c0375b1fdbU, 0xb7089f4eb6b7145eU, 0xb7c777ca37a8f712U, 0xb7005fbe34e136e0U,
  0xb6b95e2e37bb673dU, 0xb3bd5c803719a292U, 0xb79de72a36afd394U, 0x377acd18b7732fe2U,
  0xb770c1d7b6adb426U, 0xb6b360edb70f6c9eU, 0x36190254b74dba17U, 0xb70009dcb63c2690U,
  0x370344a3b781b986U, 0xb7489238345ccce0U, 0xb79d9462b759fc06U, 0xb73ec87e36f36b0dU,
  0xb626872434243018U, 0xb6af457db696503aU, 0xb6844f9836219804U, 0x37b15321379f4b98U,
  0xb5e05f40b46e6db0U, 0x36d4249737cb5e76U, 0xb720a04132cc8a00U, 0x37288b69b76e1f9bU,
  0xb79cb93c37663bdbU, 0xb55f5210b751d271U, 0x3777590737a5f85fU, 0x3782840c36c78a0aU,
  0xb7833198b6d73067U, 0x3798a04eb6fc3180U, 0xb783ea4e37c27f98U, 0x369fb861b6bf76a0U,
  0x379b9ff2b72075b4U, 0xb5474848b7531188U, 0x36f5c611b2f04860U, 0xb759190e36d75beeU,
  0x37231232370481b0U, 0x378aec71b71eb500U, 0xb75157f03678c2e1U, 0x37638f8ab7952bc5U,
  0xb722f940b5d82f88U, 0x379b5753b7a04b17U, 0x379374aeb79854e6U, 0x376f213136e2ea53U,
  0x375dffe2377ccd5bU, 0xb4e00610b74b2cbcU, 0x349a4c40b51cb3a8U, 0xb7138fbb35396d60U,
  0xb70873aeb6852700U, 0xb6843288b7cf079fU, 0xb6dafc4bb82746a6U, 0x34af1a00b81e99a2U,
  0x378ff15737589f22U, 0xb6c604dcb714c3d4U, 0xb731c6e43770626cU, 0x37bb7e1c370a4208U,
  0xb6b1ce88b6997704U, 0xb7485431b46dcba0U, 0xb7961c6ab6b143e0U, 0xb75bb827346b53e4U,
  0x378b51b6377935a8U, 0x37c228e1b756a80aU, 0xb5d864d0b7a1ea7eU, 0xb716e107b6dce132U,
  0xb6b582f036b5b682U, 0xb7ad796e375047c2U, 0x37120a0a371a3011U, 0x365ff47a3685cff9U,
  0xb752ffcc37c05dafU, 0xb6d917e136d68c72U, 0x374e01a136afee9aU, 0xb70430b4b61c278cU,
  0xb67f536c37a9c82cU, 0x37c93a2d37835d9fU, 0x372095b2375be4ebU, 0x365f5800b7871b0cU,
  0xb7453213b723357fU, 0xb6c6aaf03691ea30U, 0x3525f55c37550606U, 0xb7a072a5b7975649U,
  0xb7306f59b724197dU, 0xb703636fb7bbe024U, 0x36993c7ab7d4386aU, 0xb66e6bc037243686U,
  0xb755d9d4b72d0ff6U, 0x36ecfe0fb5afbb0dU, 0x35f4bd48b7a4b1dcU, 0x373f846e35d9c5e4U,
  0xb613233c37a4dfd3U, 0xb747342435916768U, 0x33f420e0b76bbd6eU, 0xb759cbc037c4ebf2U,
  0xb5a36c30b5e25f42U, 0xb5857050b7980a1fU, 0x36c879da37e55310U, 0x362545f4b689272cU,
  0xb6bc2d78b62e9f58U, 0xb77499c7b6b1c19aU, 0x375930e2b825e54bU, 0x3696192cb71413c0U,
  0xb7803dd2376264f7U, 0x370831fe36e6e719U, 0x37ce62f537c5e484U, 0xb6b9c4f237a046f9U,
  0x378c5ffab62e0394U, 0xb7ac069db74bccf0U, 0xb5071c00b7671e4eU, 0xb67670893795a2c3U,
  0xb711214db61be7a0U, 0xb7564b10b6cda42eU, 0x35ef25a6b7b1043dU, 0xb75362ec378023fdU,
  0x37ab8d133777bfc8U, 0x36592396b4c16aa0U, 0xb6c0f7eab6879204U, 0x3773834037587b3cU,
  0x358b2030b70de9e5U, 0xb78cb9ce35725a98U, 0xb78aa4e6368a50aeU, 0x3710d73036a2a263U,
  0x363bec373622af20U, 0xb6b724eab7cfc213U, 0xb7a6a15cb730b3b1U, 0xb750f3b237180936U,
  0x37c40c2bb7609360U, 0xb705eb6fb6c4f1d0U, 0xb78aa84c37e10558U, 0xb523368037850afaU,
  0x372ae7b9373d5e0cU, 0x37d6bfdcb63c7becU, 0x3797750e345210e0U, 0x35461a4037670ef6U,
  0x374fd346b75b1908U, 0x372b8e61b6901910U, 0x34f3607835046eb8U, 0x37804fd4b605b4c8U,
  0x37c91343b781d834U, 0xb714557ab7202b57U, 0x373f52e2b7692b8fU, 0x36c702e5375e198aU,
  0xb69242bcb79a82a5U, 0xb736871d37688566U, 0xb7649685353cb190U, 0x3717914e37359510U,
  0x3606f96036fd4ca1U, 0x375fdc32b6eb098cU, 0xb66d4c20b7388909U, 0x376ab7a5b7bbbea2U,
  0x372d3f5337e8823cU, 0x37007e3ab77ec542U, 0xb5501160372b41feU, 0xb805b251337f4c80U,
  0xb2621100b76c2e27U, 0x3755eb2ab7198d92U, 0x372c190eb7503a48U, 0x37a3c95bb5bbd1e8U,
  0xb9347ed0be745fcfU, 0x36674d60bd7d8601U, 0xb7e7505836135590U, 0x3708546ab8a6e56fU,
  0xb79ccd6eb6ce2b84U, 0x37675d04b89b668aU, 0xb84d74b0381c714fU, 0x38402a9d383d3cd8U,
  0xb7e17533bc7f766aU, 0xb8092276b8c542b2U, 0xb7839c1cbe264ed4U, 0x38222c3638c14419U,
  0xb83682d4b5f7eb20U, 0x365870b23762f1ecU, 0x37ce4e2838680c52U, 0xb7ae27db37ba5dfeU,
  0xb5c85590b75325fcU, 0xb675e1c0b8765366U, 0xb82129e0b86d2cdaU, 0xb5410f8c36b19dbaU,
  0xb910bba3bcbc86c5U, 0xb7cf7893b77f7e6fU, 0x35c405a0387a8a52U, 0x3cc6b825380a2f68U,
  0x36fcabb5b78ec6a2U, 0xb789d3f8b7f80ca4U, 0x38217ccc3792e784U, 0x386449fa37ed0d34U,
  0xb6363c5836983db0U, 0x384838c2b79d9528U, 0xb81799bc38117d3aU, 0xb87a9a3d37f402e1U,
  0xb6b6944bb388ee12U, 0x386e323537fc05f6U, 0xb72287aa34e1f6c0U, 0x36850ba0b73f83faU,
  0xb80f6358b7d40c8fU, 0xb737d872b874445fU, 0x3749294a368f701cU, 0x3704e00d3607dba8U,
  0x385aaaaeb7d076dcU, 0x37ca9bc837728be6U, 0x36b8d3c637a27b0aU, 0x366acb3cb78f0e13U,
  0x3810f3a4b7f8f113U, 0x3664b920b78a3c38U, 0xb72eec0c375af854U, 0xb7ad0aeb372e4fb3U,
  0xb6d95d48b7cc0802U, 0x3661278837a2c02eU, 0xb721be7c376a178aU, 0x371aa682b6634ad4U,
  0xb6afd83ab700b39fU, 0x368cdcebb775c9b2U, 0x37718860376013b2U, 0x3783f27e3691efceU,
  0x37197147b76d8cfcU, 0xb766974cb7241bf3U, 0x37d3a5f636512b54U, 0xb72cb572b72319c8U,
  0x37e6cd1636def8e1U, 0x379e6193362dec94U, 0xb7557752b509bf20U, 0xb72dc7fa37173384U,
  0x37094c1437112d92U, 0xb69f943bb5b76680U, 0x376205e8b7829566U, 0x37602729b7848a62U,
  0x36283e34b7116dfdU, 0xb707f21e37057da4U, 0xb6f622f237083c4fU, 0x3676009bb52ce320U,
  0x36525ff8b74c60c6U, 0x375e47ba348e7910U, 0x3736846d35cffe08U, 0x35f4f1f1b5dab458U,
  0xb7c059003782b32bU, 0x352ecb303758801cU, 0x37088602377fcf58U, 0xb79902beb6bbefe7U,
  0x35382a20b7527b34U, 0x36e29492358d81a0U, 0xb7571a03b718527eU, 0xb61ef82cb7def83aU,
  0x36adbf2e37a892c2U, 0xb6ffc0da378585c4U, 0xb7e0d02436e0d407U, 0xb5dec3c837197ddcU,
  0xb7877d4cb704d47eU, 0x3750c680b78c6606U, 0x35f265b0340ef3a0U, 0xb728f07a37f0892aU,
  0x3716bfa1b771f882U, 0x36aec90cb641ae12U, 0xb7879886377093a0U, 0x37468aec36c978e1U,
  0xb6d44ee2b795855eU, 0xb7a2d7d4b7160860U, 0xb7588ddab75893d8U, 0x375e7d24b6273186U,
  0xb68509e1b504abc0U, 0xb70a010db5f5e37cU, 0xb759a4e2b7a560baU, 0xb790d16637ee85d6U,
  0xb80c4e7a36c4e4c2U, 0x36c0af5037edeb9eU, 0xb4c555d0b783de00U, 0x37c4f372b5db17ecU,
  0xb79c76ce373cdddeU, 0x36868f8a37800716U, 0x376f29e7b761ac64U, 0xb58b01da33d230c0U,
  0x375c9228350b1850U, 0x35b1f178b61b44f8U, 0x36fe300336f4481cU, 0xb7714a2eb6956238U,
  0x377aade4369fbfebU, 0xb776d748b7874e1aU, 0x371b1880b745ce12U, 0xb76b947236736fb2U,
  0xb3ab83a037836f9cU, 0xb7999bbab6c3ec19U, 0x3734711937970876U, 0xb789b46cb78e184aU,
  0xb40a2300b783fab3U, 0xb709b6c833b79dc0U, 0xb63d9c18b767f02eU, 0x35c03e8836bf3bfcU,
  0x36fb279437104efdU, 0x360e25dcb775b1ebU, 0x3711594d36a57c4fU, 0xb4ca2c08b717f39cU,
  0x36acb98e372b64b4U, 0x370546e8378ed31cU, 0x365b82ae36efe536U, 0x361831cc37291738U,
  0xb7c11923b7ad608cU, 0x36e9ae0ab62324b8U, 0xb74300ec36fcdd6fU, 0x37594e9837177ba6U,
  0xb6567e46b67e2938U, 0x375577943756b49cU, 0x36b25c68b75083a8U, 0x364aca9c361a0600U,
  0x37b43f46b6d91cecU, 0x361aa6983732b111U, 0xb7eac280b5a7ac44U, 0x380195ba37a13774U,
  0x3708f001b76d66afU, 0x3763a0c2b585db9cU, 0xb704f9dd37a20de6U, 0xb7045de237a668eaU,
  0x370b4689b794619cU, 0xb79648a8370e7941U, 0x360ff80636834062U, 0xb6bc5f9936907ec3U,
  0xb758d17b378a9be6U, 0x377075d6b751f829U, 0x371c4bb2b7971884U, 0xb680175eb6d23decU,
  0xb7b7691635aeb054U, 0xb735cf75b6851986U, 0x37ef9e1cb6c0f9fbU, 0x361735d4b6a7b940U,
  0x340a3f80b6244b5cU, 0xb6bdde96b7a2c311U, 0x37033dc4b4da39c0U, 0x3786196c37511d7aU,
  0x37c5b0bbb53a60a0U, 0x36ac8d9835e49340U, 0x372365833712b226U, 0x36424552b68a2e28U,
  0xb74a08b2372b0901U, 0xb7a99f6e3622212eU, 0xb6fc3a36375ee46cU, 0xb69f3998b6f0455eU,
  0x3615e360b6dbdce0U, 0xb7405c2737806432U, 0x36830228b72a2f22U, 0xb3ebf5e0b6169801U,
  0xb7e6dc23b72bb49cU, 0x3758360d36a401c0U, 0x37e01454b6e2f693U, 0x3794ef58b6caab20U,
  0x3787fc203776fe00U, 0xb6d9ebf8b6877726U, 0xb66068d6377a2866U, 0xb73cd156b61fdc98U,
  0xb7853918b6c16a3aU, 0xb76c4d0236bade5dU, 0xb7918afc37159fcaU, 0x3664dd9a3701d346U,
  0x36a76c92b774f77cU, 0x377e934c375cfdb2U, 0x34e245a0b75b99e8U, 0xb7783e0437b7c946U,
  0xb7ddfedb36a691a6U, 0x37118881b7971b08U, 0x364c75203792ecf6U, 0x37923518376be757U,
  0xb72be572b699f8caU, 0x3600a8ceb7be08d8U, 0x360ebf20b832b486U, 0x37490f48b7a02686U,
  0xb7967910b6546dccU, 0x378383dcb7c8f9f6U, 0x379aca33b63425ceU, 0x36492fe4b7dd0925U,
  0xb80224f5b7c840dfU, 0xb48608603486c660U, 0x3766b138b73077f8U, 0xb6238be0b648c3aaU,
  0x35fc3698b6782324U, 0xb75eb16637111108U, 0x376e9d7d37163bedU, 0xb387df80377893f3U,
  0x3734b55fb51bb18eU, 0xb7cc288eb767bc8dU, 0x37dc800f35fc0830U, 0x3734bb1c356756b0U,
  0xb7794fc8b601755cU, 0xb6f75facb73df51bU, 0x36e8525db754406aU, 0xb7cbe9ab37871adaU,
  0xb653172c3749895eU, 0x36acb598b7c0e5faU, 0x366c6ad036814be7U, 0xb6b2d6c737dce116U,
  0x379174beb787d34eU, 0x3717d3c5b6c583adU, 0xb30f9ac0376c67b8U, 0xb6265a2e37a70e3aU,
  0x3636ec70b79ae432U, 0x37710730b68731acU, 0x36c7e7a4b79191f4U, 0x37458ca2b78d2438U,
  0x3732d68cb75473deU, 0xb54e6b6cb6f2b5daU, 0xb75d51663773d593U, 0x371fe5d437c0c346U,
  0x37736f0c35f24910U, 0x3472d73033d21f00U, 0xb6848cb7378f9776U, 0xb7821310378fcfa8U,
  0x3551a148b6d8f2e8U, 0x378d8852376cc071U, 0x36317cb8b5874314U, 0xb7486c1ab6ebd9f4U,
  0x35a56eb0354bd6e0U, 0xb69b9e82b7458056U, 0xb5f0575437420bd2U, 0xb763632f373d8218U,
  0x36ce69a8b5b36be6U, 0x35676fe03777ce6cU, 0xb6f42adab74ee150U, 0xb75e76df368495caU,
  0x37dbd61cb6e2cf16U, 0xb7deb6ce37ab1a70U, 0x37198bb1379d1c7aU, 0x37647ace3784f4f4U,
  0xb7853275b643b1a3U, 0x371348dab6c2a704U, 0x33a050803779baa8U, 0x37406084364074d3U,
  0x36e3f0b3b72ec837U, 0x36de159436acdd32U, 0xb65f3f3c344666acU, 0x36b056c636e35378U,
  0xb744cf6636955ca1U, 0xb6223312b67d2fc8U, 0xb65e96043471f230U, 0xb755b016378ed165U,
  0xb72dd54cb6f95512U, 0x371d8888b725729eU, 0xb6a34ae3350fb923U, 0x36ed1054376497deU,
  0xb787029937a2cb1cU, 0x37a27ee83770f896U, 0xb551ac8cb7a2556cU, 0xb72d5c94b72e4e52U,
  0x354e56e0b745bf12U, 0x37d584cbb6d1c2f2U, 0xb77c5febb6e99152U, 0x37a25e9e35c44f68U,
  0x36ccbae437dddb4aU, 0x36d00e7c36faf588U, 0x35a25ed836c64852U, 0xb78a6075b788440cU,
  0xb3b1faa0b5aabc38U, 0xb75be41036188768U, 0x362450e4b6c58b90U, 0x373916d8361567b4U,
  0x377dc607378c9d9aU, 0x36a7a9453760d246U, 0x3739e14537432759U, 0xb6d312cc37099d5eU,
  0x3794c74fb68743f3U, 0xb77920cfb748d5f4U, 0xb6016a2eb7248741U, 0x3603689e366fc190U,
  0xb7cdedc9b79ff9e2U, 0x3759684237c61cbeU, 0x37443ea6b7599b36U, 0x364f53a0b76c0e7aU,
  0x365e8372b64e90f0U, 0xb751de88b742ea05U, 0xb61f6dfc35c5f978U, 0xb7552cabb63f17d0U,
  0xb707a056b7b25f43U, 0x3761c8d6b6690cabU, 0xb78535b6b6df109dU, 0xb72e17d2b79a2d28U,
  0x37911aa2b7852cb9U, 0x36c35a34374456fdU, 0x372edbda375b86f8U, 0x3510d3f8b714348aU,
  0x37b8e2f8370ba2a2U, 0xb6e1bcbab7233559U, 0x377c46a7b5fc446eU, 0x375a5e61b5bbc250U,
  0xb6f3f9b634cb9630U, 0xb76e4386b666f0b8U, 0x3719330036e246c3U, 0x36c1abb4359fc6d4U,
  0xb611722cb70ea650U, 0xb76ad80b375ce3c8U, 0x37b9d6df36e477a2U, 0x36cbf86e375578b4U,
  0x38104b55377d8802U, 0x36831ee936dc3b08U, 0x37015f2fb7103db6U, 0x37c753a4b712c620U,
  0xb6290b30370d6b11U, 0x36e37d7e3712451aU, 0xb7169b9837808cfeU, 0x3735240e36c1d6d4U,
  0x3561a6c035b51f24U, 0x36ff54b2b755513dU, 0x36bf03b4373aaa6aU, 0x371914cb372c1080U,
  0x359b0028b7195c7bU, 0xb6756d68b7dd2940U, 0x3681e1c036fe075eU, 0x340c7ee0b7f446deU,
  0xb68650a837582ba2U, 0xb746a322b78188c9U, 0x37e576bab803921fU, 0xb7fb6f2737e3cc76U,
  0xb68e2cbfb77173cfU, 0x3732162cb6c6e636U, 0xb661895ab719a131U, 0xb759937c36df1d23U,
  0xb7a2e15637e452b0U, 0xb6a7e69e36d608d7U, 0xb7047e2837871f34U, 0xb6d0de4eb7162485U,
  0xb67f480836b5e714U, 0xb824e36037469534U, 0x3798b3fab76bb55dU, 0xb6f6cf65b4057e48U,
  0x3772306936f6b1fcU, 0x371b5928362e2668U, 0x36300a003752349bU, 0xb70fe591b6b58770U,
  0x3538b4e43814ee0bU, 0xb795c015374c11c7U, 0x3684c0603712adbbU, 0xb797a95337c8a03cU,
  0xb6a7a814351aec4cU, 0x3634239fb4e3c880U, 0x36e44fbcb750613bU, 0x37642f32372fc046U,
  0xb7f8bff83787ac28U, 0xb76bee4037459a71U, 0x3767d646b6043402U, 0xb6c8aa7eb79d5d88U,
  0xb660acdb367f5ed0U, 0xb68c0f4c360bf104U, 0x3789137b373c045fU, 0xb7a1518c37961545U,
  0x361bfcb4b6aaf1dcU, 0xb5b0880fb6e984b1U, 0x370075d6377a5ad2U, 0xb75eac5eb7dbae3dU,
  0x378835ae37325b94U, 0x3781b115b71ed101U, 0xb704373737c0e90aU, 0xb8033e813722792aU,
  0x3740ebfd371aa40cU, 0xb6a0e0bdb5f06a14U, 0xb65b3dd137762f0cU, 0xb6a7f9ceb7e4f406U,
  0x37e3d767b56a4fb0U, 0x36b414b7b68d972aU, 0xb5a7ea71b7a82f36U, 0x36a717aeb74ab62bU,
  0x35c726f8b7ddfe5cU, 0x362e1b7c37e2d19cU, 0xb79d84d637d268e7U, 0xb5bdc39037245e3eU,
  0xb5cc989cb789c48eU, 0x37f7e548b76173cfU, 0x36d4f757b737926eU, 0x38291f56362ac7d8U,
  0x372fafa336683094U, 0x36aa43a2b792e4d6U, 0x34e87738b7a5e6e1U, 0x35b4afc8b4e995c0U,
  0xb742ca38b590475dU, 0xb632f814b6de6b24U, 0xb656abfc36c57f67U, 0xb5e36f38b7973354U,
  0xb699a9023781cb56U, 0x37e70659b73a7e50U, 0x36758f72b67613d8U, 0x3798804eb679610aU,
  0x3739a4c4b46888b0U, 0xb73cb35ab79c37f6U, 0xb779fbfa370ac35bU, 0x3746ef98b689230fU,
  0x368e6d24b7e32d61U, 0x35e27db0b6c7c52bU, 0x376ae92b35eb81e8U, 0xb6842880b783107bU,
  0xb7b1a704379c171cU, 0x35a637583722a052U, 0xb6ae08ea37543a67U, 0x38245e5eb6b966d2U,
  0xb6bc5b4ab7808c75U, 0xb5acdae8b741c5eeU, 0xb7200b91360b2c4eU, 0xb7ef7c8036b1058dU,
  0xb5eb707cb69ec11eU, 0x3722935f3533db58U, 0x373e9d7936ddb748U, 0x3640870e381bc6d6U,
  0xb7128d26b7593628U, 0x3780acacb5f6aa75U, 0x370729c6372aa8aeU, 0x372c3f43b71a7b6aU,
  0xb764a8f137e79196U, 0x3677581c375c46fbU, 0x370bafc6b6d479d1U, 0xb719646437c9fa44U,
  0x3607b3f83711b550U, 0x3768cecdb5a4ba9cU, 0xb7e5b444b7160722U, 0x36e3717eb774eb9aU,
  0xb619b2c837375013U, 0x36d2c11035ad5d18U, 0xb712bd54354140b0U, 0xb60b9caeb78a2711U,
  0x36c7975ab72d7ac2U, 0x3791fc00365d1c36U, 0x334ad400b6860dc1U, 0x36ea8ee237068296U,
  0xb51ed990b67c2178U, 0xb780e296b76a5a1aU, 0x341e530436e23685U, 0xb7618e32b696d103U,
  0x37c0f054353a239eU, 0xb7461d75b735615aU, 0xb7925409b75772c3U, 0x36a14259b6ddedc6U,
  0xb6ee782eb756457cU, 0xb56d2854b6e1b43cU, 0xb70edd78b62800a2U, 0xb72727e2b503819cU,
  0xb7cc61cb36c70f5bU, 0xb784f29eb7e8fafbU, 0xb5fde7f0b607fba4U, 0xb5c0b55cb7709b64U,
  0xb6a83404b6144a0cU, 0xb637d17e371f22bdU, 0xb7e4023e375e7bd2U, 0x34a61c3035dfd59cU,
  0x37422a5335e45090U, 0xb6bad96236a648ecU, 0x360929b637eb2297U, 0x36fcc010b77bb35eU,
  0xb50b734837e7c622U, 0x36267f5035d3af84U, 0x326cda00b781acc1U, 0x3773c29837a1edb4U,
  0x33fc4590b74a4280U, 0xb4b4218037b8913fU, 0x37bd4df436c600caU, 0xb725ef293778a3beU,
  0xb6ffb258371907ebU, 0xb7c68fda37dfd93dU, 0x36f022bf373b3ddeU, 0x37349f39365da91aU,
  0xb7889006b6baac34U, 0xb600e630b70f506aU, 0x355028003773acf6U, 0x36c97f863711093dU,
  0xb562c9e03717e7c4U, 0x377f5d3cb7bb885aU, 0xb6add268b7a79009U, 0x36137008b694f45fU,
  0xb5d636e034c96a44U, 0xb614c49cb713adb4U, 0x3721249cb6c2211cU, 0xb70fb13ab6df5d28U,
  0xb705548137106f82U, 0xb72b02b03653cf56U, 0xb7a7a845b6bf7ce4U, 0x36a441dc36296df8U,
  0xb6f9e768366ffde0U, 0x37f9348636d11c7aU, 0x368c4c0b38012443U, 0x37113ace36a3216cU,
  0xb7798acb36f6d468U, 0xb42f5cc0363ce426U, 0x3701e94037773d66U, 0xb725c2c3b704849aU,
  0x37d50e95b6fae40cU, 0xb6c5acaeb6d8c8f4U, 0x382ee1cab6965184U, 0x3682e76b3698e55dU,
  0xb7389504b775b8faU, 0xb74d2d8b36946266U, 0x3587b97cb6f40ea0U, 0xb5dc3560b785a6d6U,
  0xb6ad09bc37356624U, 0xb489d950b7249db4U, 0xb78504d0b8016342U, 0xb77184f835ece850U,
  0x37e90021b6133d78U, 0x36d7ac2eb7101527U, 0x37a3ffedb74886eaU, 0xb6e28d9436d442a6U,
  0x37b0ce90374c444cU, 0xb726392ab70ae9d4U, 0x37be491b375de1eaU, 0x37808eb9b79532a7U,
  0xb5be7a00b6bc3d8eU, 0x373c6b92370fb4c5U, 0xb645fe34b73a72aeU, 0x36424bc4b6293c90U,
  0xb6168bf035beef68U, 0x36b1006c36313cabU, 0xb662acc8376f0b26U, 0x36b4c00d37409074U,
  0x3733794fb71cd82fU, 0xb782116436f9f189U, 0xb68f983437053424U, 0x35c6d07c3730c84dU,
  0xb69b6e02b8330d43U, 0xb6df8dbf36c47a13U, 0x36a5d59d371dbc4cU, 0xb750583cb6a91c81U,
  0x353456323789d238U, 0xb6c6eb78373bd19eU, 0x36051d58b78245b4U, 0x371e615c3708943aU,
  0xb7683810b5fcf478U, 0xb695f5fcb6ba0631U, 0x366cc8c0b72ad4d1U, 0x3748e55eb4c2a55cU,
  0x373d6768b7c3b346U, 0x3630244ab7e716e7U, 0x37158b7a37f3d7cdU, 0xb7691d573765bbd0U,
  0x3719ea96373b1c38U, 0xb778547cb7228839U, 0xb652b456371250e8U, 0x37d22e22367c07baU,
  0xb6e3032836417b78U, 0xb792448e376bd1e9U, 0x373a9351377a9330U, 0xb7ec5850b5069a00U,
  0x3742c88ab74f2389U, 0x37a6a4cc36bc80c0U, 0x36fcc56e37276b6eU, 0xb79b701ab647f598U,
  0xbd90de7c3d1f955aU, 0xbe9513d63b12066fU, 0x38990e70be877433U, 0xbdb9f1fdbe3c96ceU,
  0x372dd4bebe5c6d2bU, 0x3e1fefcab6d8c01cU, 0x3d8a61d53da9e201U, 0x3dd746c93db011aaU,
  0x3e53adbb3e0cd638U, 0xbaf35d8a3d3f14fcU, 0x3db20d5b3d951c05U, 0x3c95197bb4986340U,
  0x376df99a3d992085U, 0xbb7a0eacbaf8c1afU, 0x3891a34e38903804U, 0xbc1d87acb89bb6b1U,
  0xbdb1b992bdf185f5U, 0x3d7c2f9db98a524bU, 0x3d5837de3d4d648dU, 0x3debb1bc3e299bf5U,
  0x3db42f373dd1a075U, 0x3ae9eca338bfa7c3U, 0x3d626fc7b90f15abU, 0xbdb56ab5bd792cbdU,
  0xb8247382389ab2d0U, 0x39a1928f38c513deU, 0x39213567b7fdee90U, 0xb832e44f39cb9e34U,
  0x39941fb43a36fbb5U, 0x3908accc3d71a834U, 0x3b7d1288bba1a768U, 0x3e269d28b7a3a9edU,
  0xbd6cc160b7c90362U, 0xbbf2350bbd06cfd9U, 0x38191b38b9e8f800U, 0xbd5ee959bbeccf97U,
  0x38427335bcc86dbfU, 0x381349a53d2b786cU, 0xb9217ad2b8210208U, 0xbceed4683871c917U,
  0x38554015b95807daU, 0x3884600ab8ab6017U, 0x37d195db38e4bef2U, 0x38547e80b86d2c6eU,
  0x37e94412b7e40e0aU, 0xb70c1bd337467cdcU, 0xb8dfd478368f5087U, 0xb967f1adb61ea018U,
  0xb92e6a0cb784d264U, 0xb76cee9bb95298e0U, 0x3748c9d2b594f1b4U, 0x3816143cb729fb8eU,
  0xb8067f66b84f4c13U, 0x38b1ff4a3c087381U, 0x3811dce3b70042aeU, 0x37a1b66a36947520U,
  0x389f7490b746d8ceU, 0x37ccf33e37e692a9U, 0x38e6f8e2b84c4dcaU, 0x380cb6fc379de48bU,
  0xb81331ceb8ae69e8U, 0x383d4542b79e34d7U, 0x37b2799b38da9ca7U, 0xb9457eb5b7a9a9d6U,
  0xb6dd45403765f85eU, 0xb71c3382b8355434U, 0xb6bd27ba37953754U, 0x37111c06b78d0df3U,
  0xb75a7c843713507aU, 0xb74c486635204a56U, 0x376a4f7b37872206U, 0x361103603688604aU,
  0xb7b624e9b5186620U, 0x37878322b757ab8aU, 0x37206444b728a7d7U, 0xb68834ceb6ff62e4U,
  0xb6c922e1b72e495aU, 0x36c0b729b708d72aU, 0x37a56655b6ceef59U, 0xb59e2ce036814e85U,
  0xb685cac9b768ac28U, 0x36d556f0b6871fcbU, 0x36cb5790b61c3792U, 0x36154994377d4df7U,
  0xb6b30a48b770a61cU, 0xb605a7c83681949aU, 0xb6e68242b732f59fU, 0x368c04a4b675ad08U,
  0xb7a45ddbb6c6e000U, 0x379a9e3837755700U, 0x3589e268b7116f37U, 0x36c70a36b7952ea2U,
  0x377238abb7fc8f13U, 0xb6bbea5eb767a716U, 0x36c65e7fb603e1c0U, 0xb72f6d2e3724162dU,
  0xb719c398b75b0ad6U, 0xb6eaf6c1367de8afU, 0xb792291636ef5654U, 0x3638c4f8b7952a40U,
  0x37b22986374b5e3aU, 0xb7a4e49ab7f007d7U, 0xb3f89e4037e1142fU, 0xb7018ccf35adb834U,
  0xb6682c3d36ed621eU, 0xb4d2a2603654f990U, 0x378c1aa33735040aU, 0x37c5942c36a96ac8U,
  0x362b70bcb6ca7551U, 0xb763cb23b7a36805U, 0x36288af4370a47f6U, 0xb65dd10c37e7842eU,
  0x35dd5fbc364c01fcU, 0xb5249db0b7092f11U, 0x373e300137ce666dU, 0x35502d90b679203dU,
  0x37e584d83717a01cU, 0x365a9e64b7dce005U, 0x37653eaa348a7f80U, 0x37c7dabdb58f1363U,
  0xb79be6cfb77647c2U, 0xb6bcf048b783cde6U, 0xb6c6c031b6ab6cb8U, 0x381be509374b3b3eU,
  0xb71349b837c26d58U, 0xb7d978f735fba4ccU, 0xb73b73c2b7537174U, 0x368e5c44348ad864U,
  0x35127530b48a36b8U, 0xb43e8280b6728c60U, 0x37226a69b4ae870aU, 0x3721802a36ca5c56U,
  0x34e0abc0b7bfe224U, 0xb69343d4374a2914U, 0xb7041359b736eef6U, 0xb59016a2363aa882U,
  0xb742eb11b70c6626U, 0xb64ad28fb5b93072U, 0xb72588ccb7c917acU, 0xb6143d1836fddadcU,
  0xb6740ce1b5d30450U, 0xb73cd9bc3748ada5U, 0x3761b74037613d52U, 0x379db2d3b722ae6eU,
  0xb689766ab7d202ceU, 0x359a5c1036a5605eU, 0xb7965f10b7828ef9U, 0x368102a4378f75e8U,
  0xb65cfcf9b77128deU, 0xb6686978b725841eU, 0xb74a0c4db73f34aaU, 0xb78887feb7067404U,
  0x37852d16b751f132U, 0xb75360ea36ff761eU, 0xb6968cd9b782f0daU, 0x3722d63535ce7d50U,
  0x37efde0d3795178cU, 0xb6bcd9d036613bd5U, 0x376f074436225c54U, 0xb7ed958d3614c7dcU,
  0xb7ebcc9a3797269dU, 0x3704d0b6b7378bc0U, 0xb781ed5b33e3a7c0U, 0x367e79d6b7dd7b2bU,
  0x3797daa236ee0272U, 0xb785f81936e1071cU, 0xb7087fff334e6b80U, 0xb74bd82ab5323bc8U,
  0x37c8418cb6189338U, 0x36988c16374b85ccU, 0x3791ddcab7b858eeU, 0x35eb501cb5914ad0U,
  0x37ada807377f96eeU, 0x379c98c636aa4f7eU, 0x366cc1f837a8d2dbU, 0xb7816df23657ac52U,
  0x33d49180b753d740U, 0x36d64976b61bda98U, 0x355bd990b726772aU, 0x37594fc034d54508U,
  0x375044a4b73efde1U, 0xb709fb4636d4b4e9U, 0x378742ce35170e90U, 0x3639eefc37ddc4f3U,
  0x35bc0fe7373d740dU, 0xb761525c3733200aU, 0xb7760ba637047a59U, 0x374e63a3365e3db0U,
  0xb782401a3669743aU, 0xb6c16e76368f52e6U, 0x37e6984b36e10678U, 0x368ec8d3b74098a5U,
  0xb7a6dc66b601ebffU, 0x36b580c837e6c3e2U, 0x379020f034620680U, 0x372e2cd5b7334ebcU,
  0xb7daa1d23518a890U, 0x37005074b5d46e3cU, 0xb6ceb83c370b9f9eU, 0xb501671037a0ed2bU,
  0xb6b89fbb37b0b210U, 0x3580a664370fec7fU, 0x3cd433a936a77af7U, 0x3710b41ab60c2774U,
  0x3685222eb6d48edeU, 0x35ec21c8b687e9fcU, 0xb7898e79b61397a0U, 0x3755a2dbb6e79990U,
  0x369fb94db7a1394cU, 0xb781c5d8b68dfd14U, 0x35498f90b7c4422aU, 0xb742362bb6d82b38U,
  0x37277552b7291ae6U, 0xb796a64d36fd1a97U, 0xb71e6cf83739b275U, 0xb5b87e70362289b0U,
  0xb6ccdcea34834eccU, 0xb6b44bdcb79e1362U, 0xb7826ed437469f90U, 0xb7d3203d36b213c5U,
  0xb7c6ea153626724aU, 0xb65040b4b4e135ccU, 0xb68cc62c373dcbd1U, 0x370689533665c707U,
  0x3746ca38b73984e8U, 0xb60d9536378ab7d9U, 0x35d5e7d836369020U, 0xb75497deb75ff3a4U,
  0x3752d38fb802189bU, 0x37df2897b6407076U, 0xb728bfacb780cff8U, 0xb772b6bd36850e5aU,
  0x3720015037826504U, 0x381ecb8537911fe6U, 0x3772339e374bece8U, 0xb72ed70f3537cb20U,
  0xb6f8f1a1b6e211ccU, 0x376bd37cb76f4661U, 0xb7568e3cb5a8cd78U, 0x36e345e637c87724U,
  0xb7ba866ab776241eU, 0x36d71638b61ea702U, 0x37058810b585de80U, 0x3733893a3782a860U,
  0xb52aa328b6a3b585U, 0x371e452b377776bcU, 0x37de1139b7844aa6U, 0x36eba72ab73558ccU,
  0xb6015219b805bbfcU, 0xb7ef35b43710c832U, 0xb78d1404b762b8bfU, 0x37258208b7266278U,
  0xb6e9a3c2b6adefc2U, 0xb74e999737242ff5U, 0xb733f74b3685901cU, 0xb75e1985b70565ffU,
  0x36e0e78b37246116U, 0xb72eb38a36f104dcU, 0xb7107817379125b1U, 0xb83b2286361848f0U,
  0xb71c8fa5b65c85aeU, 0xb698862835c421d0U, 0xb71cb22ab6c675baU, 0xb66f75bcb74f8f0eU,
  0x3748827ab7c30748U, 0xb696f7913725425fU, 0xb5b5c898b6027610U, 0xb6baef0eb7314d60U,
  0xb6c5171636c26148U, 0xb7f96a6cb79ffa28U, 0xb69ef4b8b6b7f134U, 0xb71b6a7bb5b43b00U,
  0x3738d18837d1e0a1U, 0xb7d627aab821a200U, 0xb568f2b0b76e3e4aU, 0xb81d877c37649268U,
  0xb72a4281351ccd10U, 0x370da502379e4436U, 0xb770c73f379e4209U, 0xb7691a4035254280U,
  0xb50866f8371e2a01U, 0x35f4fae7b5620c10U, 0x36d0364c369132c2U, 0x373c8a08354b5708U,
  0x37e751e03649743cU, 0xb52f6ef036cd1892U, 0xb718da77371372d0U, 0x36d805a4b769483dU,
  0x37b35d08b6f6b102U, 0xb7787a0437bea591U, 0xb6b64ed2351f1f40U, 0xb6321f5cb7996015U,
  0xb7693284b570fe10U, 0xb6948b40379e3f50U, 0x3790587ab6522f64U, 0x3723352bb60155eeU,
  0x37909e473730a6c6U, 0x37500db73429a950U, 0xb741b40a3751c364U, 0x3694077eb706c01eU,
  0x376de02bb78ec1a0U, 0xb74ed69cb7c14d31U, 0x372127d036c427c1U, 0x36213a5ab72a5361U,
  0x37800f9b3709fc0fU, 0xb593e1c0b60b9060U, 0x37e2103237698248U, 0x37478934b5c3f070U,
  0xb5db5ddc37215a44U, 0x35962f083726e7d3U, 0xb78fd0cab70b3f3bU, 0xb639242c364740d1U,
  0x37118813b759291bU, 0xb798e8f2b4c409a0U, 0xb6f4193a37fe35f5U, 0x37a26e5436e40756U,
  0x35e9c6acb6a6e882U, 0x36e5933636777e8cU, 0x35ff6340b728ea38U, 0xb5e55118369445e2U,
  0xb6df4a0936b1bce8U, 0x36fbd19036a173feU, 0x3649167835b373b0U, 0xb750e3afb73892b6U,
  0xb77b9402b779b18fU, 0xb765f652b7982fc2U, 0x3789cfd4365ad84cU, 0x3743bda53687f99cU,
  0xb6bd8dbe36ae09faU, 0xb627784ab722adb1U, 0xb5684060b781ed81U, 0x373dcd9ab6cba158U,
  0x368556c235163ad0U, 0x345ca2b435ad8530U, 0x3785d084b723692fU, 0xb7b4c9a237ee3ca2U,
  0x37ffc228360261f8U, 0xb71dba44b70f11c9U, 0x36f2e38636edd51fU, 0x365944c8345dcb80U,
  0xb756b9ddb68e5ad8U, 0x378609dbb7e2b1eaU, 0xb6f46a4eb71a1172U, 0xb781b0b5b6ecd13eU,
  0x34a32ca037395628U, 0xb6b1bbea36e2f56cU, 0xb79e46a637727c03U, 0xb6dfae6c3756e34eU,
  0x36a0f32eb66b7100U, 0x347a091435c4ed8aU, 0xb751f830372921a0U, 0xb606b48037e464e0U,
  0xb686dcd836c7d2cfU, 0xb793979ab64dd357U, 0x37691f54b7338d1fU, 0x3601d4eab74e3886U,
  0x369c45ea36811fddU, 0x3733813c372ad918U, 0x3832f3d0b799b48fU, 0x32b56cc0377e3af7U,
  0xb7385c3ab7df9748U, 0xb60de844b5e17c84U, 0x36b30094b76b8b46U, 0xb715fb7d37cde2f7U,
  0x37858955b6e7ccf0U, 0xb7894b6a378e994aU, 0xb7116042b730bd35U, 0xb739d60fb642c3e4U,
  0xb5951684371a65ddU, 0xb6e0eae534cf2be0U, 0x37835451b71017d0U, 0xb7346e84b7d695c6U,
  0xb564ad20b65a0298U, 0x379527e237972d56U, 0xb700517a36c87e96U, 0xb75fca87b7348dcdU,
  0xb73b5e5c35099df8U, 0xb641c066b733fb64U, 0x3753ac9eb665cce9U, 0x36973284b6961d20U,
  0xb72f0988b79e8088U, 0xb7e4cb80b74a4b2eU, 0x371309243632d198U, 0xb802cfbbb654cb52U,
  0xb72dbe28b5681c20U, 0x378f728337285169U, 0xb78f207c37473093U, 0x36b85a5cb6f8f70cU,
  0xb76d996e3536f160U, 0xb7f07a973674ca48U, 0xb7638e4437765c09U, 0xb6af7ed237693c58U,
  0xb691ec29b72218edU, 0x363c8cecb6c63074U, 0x369e2da4369ed348U, 0x36b1c732b6d22e64U,
  0xb5226a4836f6ba32U, 0xb53e1628377e1515U, 0x370b32e636b826caU, 0x36a6baf9b77e3ea3U,
  0x37c3d901368d3f3bU, 0x3725b8973784e1f3U, 0x35e786f8370e0190U, 0xb78cc5c8b7707e44U,
  0x3756e02ab69cabbdU, 0xb679d80eb7a114d0U, 0xb75c075b367773b6U, 0xb71b2309b48bd240U,
  0x37aa609cb79dcc42U, 0x374054e6b4d06a80U, 0xb76468be352f2b8cU, 0x3653f3d2b750bbf6U,
  0x36a1620f3758c0afU, 0xb6590814b788318cU, 0x374b5a8636b82b93U, 0xb697d2a736831a42U,
  0xb6d54b04b78a091cU, 0x36f37e7eb7a23f7dU, 0xb59733083746cb62U, 0x363d8480b720cfc3U,
  0x3768d90b36aede61U, 0x3731ce3a370d0ecbU, 0xb729efefb622b976U, 0x36e842c237bb0d54U,
  0x36866d48b627bb60U, 0x370c4f253537e150U, 0xb733b5e2b731d59aU, 0x37de131db657335aU,
  0x365048d83733e388U, 0x374b9d1837452165U, 0x36e8f4a237d14459U, 0xb52c1950b6dbeb14U,
  0x378cbf5037926eb4U, 0x374bc6f23785443eU, 0x36beaa7c375ed9f9U, 0x3711348db78c1bc0U,
  0xb73ee0aab6ac2f8aU, 0x377a55d7360b1166U, 0xb5ec8187b78efc2cU, 0xb6b232f2b74dbac0U,
  0xb790658a379074f3U, 0x37808f4cb72f1824U, 0x3684973bb79200bcU, 0x375c79e5b7938d71U,
  0xb791115cb7e42301U, 0xb6820776b791d321U, 0x36b50d4236e6b34fU, 0xb773d838b749c2cbU,
  0xb70638c4369db80aU, 0x35350000b793f085U, 0x36c4dc7a379ea26bU, 0xb7a19460b7a30b6cU,
  0x37856676359e3ea8U, 0xb63eff10b7715d96U, 0x37823262365b4aa4U, 0x36daa8a8358878d0U,
  0x374cb6b8b795a479U, 0x3796def6b5280561U, 0x3724130e375e12b0U, 0xb74598c2b77bc428U,
  0x3786a17c375514f9U, 0x36b6004bb72dfe74U, 0xb75519b4368c5090U, 0x37a57f5ab6934058U,
  0x3682d254b711e19cU, 0x36889c57b6e9362bU, 0x370aa860b79be612U, 0xb797458a3696bf50U,
  0xb682c966379cb111U, 0xb7bf1aaeb6d4f82aU, 0xb52f712c35fcc508U, 0xb76b512cb64317b9U,
  0xb7bb748137f65a58U, 0x378a937ab716e772U, 0xb760f882b7e2bbf8U, 0xb6be5e7ab5df89c0U,
  0x361ece64b763a213U, 0xb685ba403702bd16U, 0xb5288970b7e59839U, 0x37e598eab7d6ad91U,
  0x362da6c8b79224c9U, 0xb7118bf4b4d93420U, 0x36f52afa379207bdU, 0x37025cd2b747c1c4U,
  0x3774523f369032c0U, 0x36eb0808b7342cefU, 0x376f98bab762feb0U, 0x36c4d1ec383bf81aU,
  0xb6dda6b83736115fU, 0x3653880c38046b55U, 0xb4966240374fab74U, 0x375a60f036ab7326U,
  0x343ffb60b67326ceU, 0xb82c5294b785eeb0U, 0x370c064a37970cd2U, 0x3792ae9eb6be1f92U,
  0xb7719a42b6c41480U, 0x370d7cc3b587eb80U, 0xb736680d35e19be0U, 0xb6172150b7e74d53U,
  0x36ca4266b742a486U, 0x35b9e670b64dddb8U, 0xb6720346b57d1750U, 0x367966e0b75f5512U,
  0xb79a2bfdb6d6fe8bU, 0xb6cffb3c36c34018U, 0xb5a67e7cb67f84c0U, 0x373c270b37fb97acU,
  0xb69198d4366e35f4U, 0x3700b1e737e3b400U, 0x37e8287ab6e03751U, 0x3775bfd1b6624abaU,
  0x36e20b1a36a17f6bU, 0xb7a97024b76d6fc9U, 0x3700266bb6e3064cU, 0x376acd3236fc24a8U,
  0x3754c8ff3721e801U, 0xb737811e37b1fa51U, 0xb6fb1cd8b73f978cU, 0x378b014eb63181a4U,
  0xb79c9438372a2a18U, 0x35d019a0b7c0305fU, 0xb743ad7cb7cff2fdU, 0xb656ddf8b758481dU,
  0xb5b9e76a3695d959U, 0xb5d8411037785470U, 0xb63d89403654db30U, 0x35bb6800371ba8d2U,
  0x3600f54837b47f28U, 0x37519932b66b1068U, 0xb70f7fde3721dadcU, 0x36c2b17e37096510U,
  0xb7b89a8ab708e402U, 0xb78aa1f0b6394713U, 0xb6aa76d6b5dc16c0U, 0xb58fa298377eae54U,
  0x375cb79c37447660U, 0xb661a42237ec9019U, 0xb6b5a43ab787fd88U, 0x36d8243235ffcd58U,
  0x3757a920b70e1d30U, 0xb4770e00b6f549a0U, 0xb7cb3d7fb4b355f0U, 0xb383f180b5704500U,
  0xb75e0a0d35b85ca0U, 0x375c3554b75f6c82U, 0xb6873289b6c6211cU, 0x3745e18936fca168U,
  0x365672843751cefeU, 0x36e87600b4f39540U, 0x36b8f075376fda07U, 0xb63632dcb6b4bedeU,
  0x3780d55e3296c900U, 0xb79c34de371ffde7U, 0x3739e09937874de0U, 0xb5dcde28b7237460U,
  0x37446c93374613bdU, 0x37569e28b69db1e8U, 0x35109970374777cdU, 0x36514365b783d394U,
  0x3722e06035fcea88U, 0x37466463368873caU, 0xb698e20ab71b3848U, 0x3775774236253faeU,
  0xb65d236435cb5048U, 0xb7041f6eb7150586U, 0xb66e83a037c78fe4U, 0xb765ad24b7d1c225U,
  0xb7a69dc836a53d28U, 0xb758c4aeb71d6439U, 0x379c53edb64f2108U, 0x3782811334cce2daU,
  0xb642e26b3795ca32U, 0xb75fa748b5df4273U, 0xb6e458b5b6e2acc6U, 0xb741032e34ed8e00U,
  0xb994342ebe811a68U, 0x3d8634fcbd8f40c3U, 0xb8c9d461b9127cb6U, 0x3910e5e9b94e0704U,
  0x392805aa3d041411U, 0xbd910db2b8878a89U, 0xb798776238b84767U, 0xb85a64c4b9588445U,
  0xb8d7f04fbc9d1921U, 0x37e31f98bb3f4b9fU, 0xb7c4c580be574831U, 0xbd2808e4390dfea0U,
  0x37a3037ab702e948U, 0x37f4d75a38aac52dU, 0x38332e5037d39994U, 0xb8113508b8bae024U,
  0x3c86ea4fb76fe1faU, 0x384b682b391c5e9eU, 0xb882fed6b7d5e90eU, 0xb7f5fe9b352d2fa0U,
  0xbc92f43abda70a6fU, 0xb838db3eb6c019c2U, 0x389c7c6139641258U, 0x3cd28d0938f2c502U,
  0x3821070237d61639U, 0x385ea146b8c08b4cU, 0xb748b654382307e5U, 0x36cada4038213f88U,
  0xb96ba0fcb974ea26U, 0x382378d537d8c0deU, 0xb88695ba38ea3bd2U, 0xb91852d2b8948b91U,
  0xb6243ba6385d582aU, 0xb7c5bb01b706374eU, 0xb8a1e291b80d7322U, 0x38df5c7f386b0f1aU,
  0xb798cac2383d8c0bU, 0xb74cf418b846eb82U, 0x36a6c6de387b0fa4U, 0xb6f82dd6b86be3b5U,
  0x38220e9839130cb2U, 0xb89ecaac38754e53U, 0x372f9c983808dcb6U, 0x354037e0b791d2e3U,
  0xb83560dab81eac78U, 0x362f9668b7d337d4U, 0x3655e62cb7a6016bU, 0x38984870383c9f3aU,
  0x36e43d3c37391069U, 0x37c7b9183840d41aU, 0x37b8bf84b69746b2U, 0xb784d7043811250bU,
  0xb739c83a37a68959U, 0x37a6899eb7ee7a90U, 0xb793a6dab83005d0U, 0x363f2ae8b7943d5bU,
  0xb883abd0b69a0eb5U, 0x37a02930b70908c4U, 0xb74e5288b7d9abe7U, 0xb77e1336b781e054U,
  0x3780e07bb797c906U, 0x37840f01378c689dU, 0x36f94668373bde31U, 0x37163c0037a08e2eU,
  0xb6e50713b76bb43bU, 0x37643fffb6bae52eU, 0x362bff04376550d0U, 0x379796ff37602199U,
  0x36d83fa2b7d77702U, 0xb7592611369e189eU, 0x3694f4dbb79920efU, 0xb7734ac0b74c6097U,
  0x35f4c78837938978U, 0x368fabda350a0320U, 0x37d04cc334e3b9c0U, 0xb4d6fbe037491cd5U,
  0x34979900b70fe696U, 0xb7c43858b74e8921U, 0x35bab4c836efa37eU, 0xb5e92390b6580d2bU,
  0x37284967b7258e17U, 0x378dbdbfb79674d8U, 0x368b432e378e9a74U, 0xb71fc59b3665fca6U,
  0x37d835f637671bbeU, 0x35ee88f0b723f09cU, 0xb60a898a37e92e3bU, 0xb73b37e3b71acefaU,
  0xb8020403b784b6fcU, 0xb7600a76b78559f0U, 0xb6f138d0b7653b24U, 0x37c07250b6c7e15aU,
  0xb630b0a4b6ef5edcU, 0xb6980a763743dd7aU, 0x36c56c3a36e45dcaU, 0xb7e0702cb7b5c322U,
  0x374e94f6b6495b8eU, 0xb6df45163761dbc1U, 0x35265450374af450U, 0xb69bce8c36d8572dU,
  0xb7724c28368236c3U, 0x3736ee15376f0b65U, 0x37849de137f466e4U, 0x37a3e3e9b79921a5U,
  0x37f161b6b77e6062U, 0x379683c7b7eae764U, 0x33cca640b6e65c4eU, 0xb798d5d2b703a065U,
  0x37eb220ab6b4f008U, 0xb6f4eb2ab75c80b0U, 0x359ad2d837825b77U, 0xb7be86d9b78a01a8U,
  0xb70cf29eb510e5a0U, 0xb688e5a6b6ef4f64U, 0xb70effe7b5e577a4U, 0x3404e24036686eb0U,
  0x36d0913337091543U, 0xb75f4cd03640a4a0U, 0x37544d043804d218U, 0xb750aed3b68cb48eU,
  0x3526a02037444de0U, 0x35105360375bf621U, 0xb723e164b7b89b0eU, 0x37a50a05374c41ebU,
  0xb743927d3691e50cU, 0x37a4c898373d433eU, 0xb599bf4c3707f2faU, 0xb71e797433e17480U,
  0x36c41d9236208a48U, 0x3753a05037c529e9U, 0xb743bca636705327U, 0xb7a28ca637a580c6U,
  0x3387968037315d30U, 0x3638118e376324c0U, 0xb709b09237954b60U, 0x36adeefcb72063d0U,
  0xb6e1d74ab8015450U, 0xb70178cab709aa60U, 0xb751101a37a4a956U, 0xb6f0ea453696a7b6U,
  0xb747951e364c5b24U, 0xb76063be3608ed50U, 0xb75855b8b6f42272U, 0xb7a38a3fb4acba80U,
  0x37698f0236949c70U, 0xb3e458c0345d3500U, 0x3764257637213a27U, 0xb6101bfcb6bae74cU,
  0x3694e091b6babe60U, 0xb6ba73abb5860a30U, 0x35dda850b76c9495U, 0x37e54e7a370b8d72U,
  0x375294ea367e5bd5U, 0xb5cf881f37f05aa6U, 0xb78430a8b7811ef7U, 0xb70cc7d8370a2c0aU,
  0xb6374570370c05ceU, 0xb7450800377980c7U, 0x373d78aeb78f4894U, 0xb680120a3715e9c4U,
  0x373e677437657520U, 0xb79255a83551fee8U, 0xb79749803798c33aU, 0xb67ee10eb40b9480U,
  0xb3999e10b725ba77U, 0xb734884c3742044aU, 0x3179a000378e92c6U, 0x3616bb3e377aa1f7U,
  0xb63b55ecb6d16b67U, 0x35e58980b698577aU, 0xb641d370b79efe37U, 0x3611a254375c5938U,
  0xb7986e74b797b3dcU, 0xb59c103036f8c61aU, 0xb614a348b7a6974cU, 0x3607dfd636c1d1feU,
  0xb66f42bc351b5188U, 0x376defb63832d764U, 0x372d2b7ab6632dfaU, 0xb4e93040b7603352U,
  0x370efeb033454d00U, 0xb6dd76fab69558c3U, 0xb6d95eefb5d85778U, 0xb759390eb671ea24U,
  0xb7c610ca347d70a8U, 0xb7629f4f371da016U, 0xb6d194ecb778742eU, 0x36d5e902b7cd0e82U,
  0xb714c7de361e7b24U, 0x3618851637a0cb16U, 0xb75fd35cb791c0feU, 0xb6f55c53b78623acU,
  0xb7c6b3dd37302e8fU, 0xb6542de3370a3874U, 0x35b7b71cb5ff7ed0U, 0x36ce0b2bb7979e23U,
  0xb788f45a3756a117U, 0xb737edf5b72e5d54U, 0xb4c69860b70671a6U, 0xb66f6c48b71cce61U,
  0xb66ef2e1369612bfU, 0x35d6f68ab6a9517aU, 0x37a7decab778bbccU, 0xb79630ae350a316fU,
  0x348f4e08375ebb3bU, 0xb747d9ce36f42a19U, 0xb7995f5935b12b38U, 0x36a55b55b75ec6b2U,
  0xb7795049b7155394U, 0x373c3ab0371b0b66U, 0xb6368efd3642ce28U, 0x37172b7b33962a00U,
  0xb619825d37e516c1U, 0xb78c2299377586c0U, 0xb5ac3ba2378c4150U, 0xb6bb729e36807dfeU,
  0xb782335936de9f6cU, 0x3700c2d63710d7e9U, 0x362f51c6b74ff1e8U, 0xb6ebf997379c2ca4U,
  0x370a8d93b6ffbf40U, 0x36e8eea5b749ab0eU, 0xb72f7decb6d5c624U, 0x374c69e9b72c2084U,
  0xb758690eb6e96312U, 0xb7093ad1b633d74aU, 0x36818d0837a12541U, 0x371cd5e0b6f6316cU,
  0xb62864f037f445d1U, 0xb780ca7037a736abU, 0x36de6c95375beb23U, 0x35c9096437ba93b0U,
  0xb7e2265e35a5cab4U, 0x348c3814b705a598U, 0xb74c993b36fa44d7U, 0xb71e1518376c28caU,
  0x374dd575368a3142U, 0xb5273440b5dc0da8U, 0xb73d5c64b53f7480U, 0xb65d6fc4b6976618U,
  0xb609fdf8374929b4U, 0xb71c5716b786c7bcU, 0x3611275cb65b64ecU, 0x376ce80236a94b3dU,
  0xb6e4d4d6b6e4c4b5U, 0x3774bec4b7560464U, 0x3727b6ac34e00740U, 0x37e9c4c4378a9b92U,
  0xb6f6940cb64bdbb4U, 0xb66273e0b5f46494U, 0x3707e546b78ef2c6U, 0xb62675c8b6a8d05eU,
  0x3602e36c3678049eU, 0x35fe2f0eb6a8a868U, 0xb7260f3836fa48f7U, 0xb6fe62203659718bU,
  0xb695d79437bab818U, 0xb7107e26374ef514U, 0xb470bf40351aa9ecU, 0xb721493937283888U,
  0x37e2b5a4b73eb2e0U, 0xb72e68e337c08a88U, 0x34810bc035c740a8U, 0xb5def69eb73703aeU,
  0xb7273af5b77cfb3cU, 0x377c2cdf376604b9U, 0x3720671bb73043d3U, 0xb7436829b6d7be04U,
  0xb699a943b787f7feU, 0xb531f6a8348dad60U, 0xb71a01aa37194d48U, 0x369649723782cf49U,
  0xb7eb0e0436f92c49U, 0xb750c894b711bdeeU, 0x36e2f8cdb75a06dcU, 0xb7724850b6d9502cU,
  0xb75ede05372010e8U, 0x379df9de37755e9fU, 0x3766a790b7261ff8U, 0x355341f035b09358U,
  0x36530ce2372ba869U, 0xb672a0c5378a3a7cU, 0xb780ed5a36cb0b3eU, 0xb7a3ebcdb7728398U,
  0xb7789f70b6ff7810U, 0xb721175a3802fc1fU, 0x36fcbe72b789ad5aU, 0x379cd806b6c10d7cU,
  0xb7491cf1369b8ec4U, 0x36f47951b74b9312U, 0xb5744f6e375385faU, 0xb6d2261eb76e3bb6U,
  0xb7e486ceb6f52a1bU, 0x37257a333719e8a1U, 0xb701b07db789f77aU, 0xb66b8303b74eabf1U,
  0xb740fe38365ca0e6U, 0x36b44f2236cd8ef5U, 0x3426a710374f84c2U, 0x375f7178b66ad84cU,
  0x35548e14b6a7f2b6U, 0x379d21703641c6d1U, 0xb6f6061fb78652e4U, 0xb5de51c8374d178cU,
  0xb6b62fc2b6e180d0U, 0x36dc8f8b3782c95bU, 0xb714ebd9b681b46fU, 0xb7ac411f37a21f82U,
  0xb6fde176b709d03cU, 0xb75e85c9b7928ee6U, 0xb78c693a37a18a9cU, 0x36a46bc8368db988U,
  0x36835c62b70a5414U, 0x35e7e20436809954U, 0x36bbc88cb615aefaU, 0x366a1ed833d1ca80U,
  0xb6a2b746b71f37a6U, 0xb5bc85183749ed3fU, 0xb7576319b74d3192U, 0x3738884e36142dacU,
  0xb6b18d233698b54eU, 0xb7972cf7b6492f30U, 0x375d6a52b741e646U, 0x374df270b6cbaf06U,
  0x37ab6f6937d27034U, 0x37944d61371de3f4U, 0xb6b50188b75902afU, 0x36cbebf0b6fd9170U,
  0x33aa9980371c113fU, 0x35e78b803834f910U, 0x37adfed0b7694f2dU, 0x3759cfa5b72aee41U,
  0x36bc878237a152b7U, 0xb6e12c90b630606cU, 0x37bb5a4836255d46U, 0xb594a170b7674bf5U,
  0x37af9cde3785308bU, 0xb67fb688b7eb8402U, 0xb724b71b3794b838U, 0x36fb37c037e23402U,
  0x3648c9ecb6a9dbd2U, 0x37cf51573710483dU, 0xb65e2a18b6ea4398U, 0xb4ef04803605041dU,
  0x37975725375af5daU, 0xb4bc2a90b52ddd70U, 0x37955a71b7934ed4U, 0x378ab5d734eb88f4U,
  0xb6d10832371b2393U, 0x37d757de357a6d50U, 0xb711722435d370e8U, 0xb7450f2cb65f6048U,
  0x36a62cccb53e4ce0U, 0x369f04d3b7856f47U, 0x36a3c600b750d4edU, 0xb7142a66375aa37bU,
  0xb79843be3729f631U, 0x359acc243660259aU, 0x37452157b71c47d9U, 0xb70af0abb74d53a6U,
  0xb75f2d2bb7209db0U, 0xb793657837760f54U, 0x36b9de8ab778d5ccU, 0xb700ce6cb66712ecU,
  0x3779da4eb6d1c30cU, 0xb72679573756cd14U, 0xb44bb360b658bccbU, 0xb77e51aab7364940U,
  0xb7e933b7b6ce3018U, 0x3720eae636621cc8U, 0xb7111cffb5414158U, 0x37e80fe2376ce138U,
  0xb6b3c675b6d29ad3U, 0xb6c14998b641c318U, 0x322f4000375d1b78U, 0x36932dac35426b30U,
  0xb7673fa037a24c86U, 0x35e4c2883741bda9U, 0x369bca28b79f6386U, 0xb660aff0b6da0962U,
  0xb6bf52a03781d548U, 0xb790abc4371744cbU, 0x3603af94b6125a60U, 0xb580225336d527c4U,
  0x36f3f90ab6929d2fU, 0xb759133ab787bb70U, 0xb74885ddb74a708eU, 0x35efaaecb6c0b2d1U,
  0x371ba746358a95e0U, 0x353811e037c66642U, 0x370b3b49b5dff208U, 0x3794ee0237eb6c7eU,
  0xb7044cfcb7a95071U, 0xb6eddc54b80881d2U, 0x37087999b6c3163eU, 0xb733a154b6a925eeU,
  0xb7b29c9ab75605ccU, 0xb70e192e36f4c176U, 0x3703b95cb7815e5cU, 0xb7558a5cb70c297cU,
  0xb7e2f63ab78f6160U, 0x372e5ec236786edeU, 0xb71919723777bb3aU, 0xb722a39ab7aea1ccU,
  0x352a14f03621a784U, 0xb6550f18379ff35fU, 0xb67119b0b748a6d5U, 0xb6fc1410b6d11e65U,
  0x375631a437e8a670U, 0x3750e1a036c77fd4U, 0x36d60dc835bc7600U, 0x3724648a37b8efedU,
  0xb71e7e50b7cbe5bbU, 0xb74ad5b2b69976c3U, 0x36857118b6f83ea8U, 0x37563b4337658dc2U,
  0x3757525036d97ec0U, 0x37414408378c8778U, 0x3733f58b3823c674U, 0x37372b92b79d781dU,
  0x366d6048b648db7cU, 0xb7b02c75371bdebdU, 0x36f2452cb704a446U, 0x375923f0b6c8d22cU,
  0xb6d14b6ab71b07a0U, 0xb6ddd3d936e80f95U, 0x36cb624035ccde18U, 0x34b2dfe0b6c4b927U,
  0xb6cfcef2b4cc61f0U, 0xb70d4da03799fc0fU, 0x37d4448036839a98U, 0x36e2e318b7a9f857U,
  0xb74ef0f1b65492e4U, 0xb759949bb72727bfU, 0x3712fe00b7d3e489U, 0x3642f244b7801056U,
  0xb6c9e316372d28beU, 0xb7469859b74d5126U, 0x374fbf72353070b0U, 0x367608c136bf77d2U,
  0xb79251f8b700d8d9U, 0xb6958e0e3708038eU, 0x3688cd8c37e31ca6U, 0x37494763374c7cbdU,
  0xb787cd87b70da2e2U, 0x370b287a37dda52bU, 0x37cffe5636a9ca2bU, 0xb72a7b9536541fecU,
  0xb7908f6db757279eU, 0x375d0726b6ce4446U, 0x370297b836bdf893U, 0xb7330ac4b7012f45U,
  0x36d7dc8eb74fc87eU, 0x3770b36eb782b6f4U, 0x36d20082368086c2U, 0xb768f3c7b7175ee0U,
  0x36d5c14ab69af1daU, 0xb5e3a93037ca03a7U, 0x350e0880b711e972U, 0xb70ca656b6368274U,
  0x371e8fc036dd2ba5U, 0xb7c1f515b682bf04U, 0xb6d88ba03717bbecU, 0xb71989d1b6a8c834U,
  0x36242e78b7e288a8U, 0xb8314c99b787b5e2U, 0xb69a4edeb7223405U, 0xb5bc634c37323750U,
  0xb6f2a0a6b7a2925cU, 0xb79aafa4b6151e00U, 0x36b264b2b75f08e2U, 0xb56a6698364bac29U,
  0xb7c0418ab6b675d8U, 0x37321f34b7b9e537U, 0x3687796d3779e448U, 0xb5ea274c3781cfd2U,
  0xb7ac1f48b696c720U, 0x3748b8c736f1ad2fU, 0x37a21f7135e92870U, 0x3612e472375fc7a2U,
  0xb6b0a31ab75baed6U, 0x378aa627376f289eU, 0x374743cbb768a94cU, 0xb70d39b636cc57f0U,
  0x36a65c5e3700b30aU, 0x3704ac75378a8a2aU, 0xb400b12836a47a64U, 0xb71e9796b732f638U,
  0xb7878bf6b7c2506eU, 0xb75a165537d5bc73U, 0x37b7b38c370e4770U, 0xb7058b9a36f4636eU,
  0x3629fa67b7f11327U, 0x3644bd30370ec246U, 0x38032b1db75035e8U, 0x36bd5a36b3c22b00U,
  0xb78ebce8357baa70U, 0xb6d9fd9a368c7f70U, 0xb706862435d69c5cU, 0x3544435037c625dbU,
  0xb6fca25e370051ebU, 0xb6bd4c6836ad4296U, 0xb77ccd18b685a398U, 0xb79fce3bb7911036U,
  0x35a882143795b0fcU, 0x3624af1cb790f570U, 0x3782eb6037925e97U, 0xb6a651c5364e8199U,
  0x3790c290b6ebb73cU, 0xb7a27cd6b592dc3cU, 0xb76fecff37bb7cd8U, 0xb6df6b72b6d224c3U,
  0xb39ca100b75f8214U, 0xb737f8ce37c64320U, 0xb55c81a8375ff194U, 0xb6942a04b556be90U,
  0xb5189df8371c6d51U, 0xb78b896637756c0aU, 0xb55d55003705af24U, 0x374066f6b40cf638U,
  0x35955bffb732cdb8U, 0xb760cd443707675dU, 0x3615680036de31c6U, 0xb7b1d8be360860eaU,
  0x362f775c370cc710U, 0xb8170fa73693c75aU, 0x36ba5fdcb70e2d0eU, 0xb698d870378eab96U,
  0xb7034440b7c7fe82U, 0xb8260418370a982eU, 0x376bc417b7d16eb2U, 0x3796fe323778d769U,
  0xb70df5beb77c965fU, 0xb74b5202368857b6U, 0xb7104eb5b63341c2U, 0x36f8dc38b50c04d0U,
  0x36436c61b223d500U, 0xb7584d423776e514U, 0x37ee66c0b6c3c5ceU, 0xb73f8260b74fd4eaU,
  0x36dbe0d13721a29fU, 0xb61bd522b64707c1U, 0x358ce784b764096bU, 0x35c315c937ebfcd6U,
  0xb6f21cc2b6fcafb2U, 0xb67cc476364f17e6U, 0xb6dd5dd8b71d939bU, 0xb7b54b28b673547aU,
  0xb7a7ef48b4c373b0U, 0x3721bff2b773eb30U, 0xb76cc6a837523a4fU, 0xb67f7a9c35e10940U,
  0xb60b3dca379f7f19U, 0x37035e86373742a2U, 0x3709f72cb51856e8U, 0x36f55c51b71db57bU,
  0x36f3a3a0376aa17eU, 0x367c8c0db6eb4dbcU, 0x36c3bb5936c998f3U, 0x3755980eb6fd7ae0U,
  0x3725cfe4372aabc2U, 0xb77f491237c39cd3U, 0xb787233437877a24U, 0xb7301b483647040cU,
  0xb6ae0ecc3699f00bU, 0x37cc5e52373cd6ffU, 0xb7862b59b70b91b0U, 0x3740912637685034U,
  0x36a63a963751d5a3U, 0xb76d4a96b6d29e2bU, 0x360f85f6b797ad2eU, 0xb7a96538b6e9fe64U,
  0xb61ae491363b587aU, 0xb65d4ae0b5c4b360U, 0xb6f232a4b72c0aa2U, 0x360c8abcb73f2aa4U,
  0xb75fb7b035f4eed0U, 0x358f4f5eb7949109U, 0xb729df8eb78eecf8U, 0xb6826e58b7106c14U,
  0xb744a3a3b79ba780U, 0xb7a5f478b7683a2aU, 0xb7009584b6ffba6aU, 0xb7099ab2376e0168U,
  0x37648471b71d2d8eU, 0x370b2596373c2098U, 0xb61fad06b7336224U, 0xb7a65780b7d10999U,
  0xb7e3b574378a9b52U, 0xb827e03c36947746U, 0xb62c7582373fe0c3U, 0xb56cc78837908dd1U,
  0xb753194e37931d56U, 0xb6d1db8837366c63U, 0xb756ba00b785f900U, 0x36d9519e363c3a10U,
  0xb72bfeabb6c63eafU, 0x3715469eb707662aU, 0x3750aee0b7156c09U, 0xb620507ab6ed22b8U,
  0xb5bee840b6e132c2U, 0xb7320844b6c0ed7eU, 0x36ebd32037408a38U, 0x371240bc37dc9e71U,
  0x37aa8f7b37e42efdU, 0x377e2afe37f390ecU, 0xb759be01376e9225U, 0x37b4505eb773a086U,
  0xb76f6fe5b75ef025U, 0xb6d7902c37c8a96dU, 0xb6ffdadfb6198c16U, 0xb77bf1e635ac59c8U,
  0x368c95f435f6a138U, 0x379d0ebf36b5ca5cU, 0x3695e38e3824f0efU, 0xb7f0cad1b7c5012dU,
  0x366a2d7834444be0U, 0xb7636cd6373dd32eU, 0x3739863637120cfaU, 0xb3ec758037207e94U,
  0x371b4a8cb629e886U, 0xb64f2d0cb67753acU, 0xb7825244b6822544U, 0x37070a0db7633279U,
  0x37286c61b77a53f9U, 0xb54f864637dcde24U, 0x378d53ea35b619beU, 0x374c0df6b5c3e780U,
  0x36d5b5f4b7877adaU, 0x37511ca836b9d384U, 0x33de38c0b7902dcaU, 0x35c4eab837793cb6U,
  0x36ea2967b6d8cd35U, 0x3579bcb0b70f74b2U, 0x3711896b380591e8U, 0xb7d0594bb7da6642U,
  0xb728018536404810U, 0x3719312ab744bee4U, 0xb7da200836a76d70U, 0xb71e5236b6ec2f51U,
  0x3ced4f003cdbb190U, 0xbcb6f41d3d0e78beU, 0xbc49acd33caa2038U, 0x3bf2273e3cfb8f5eU,
  0x3ce343ef3d0371c8U, 0xbb242a13399bd050U, 0x3cb90bdc3cfe3896U, 0xbb3ad3003cc417e2U,
  0x3cf731bdbc093f4eU, 0x3d650ec73c8623f6U, 0x3c9beb4b3d4ce36dU, 0x3c20b6c43bafe5eaU,
  0x3ac697563a753509U, 0x3c6b172d3cda4eb6U, 0x3c9f89e93d5a7d29U, 0x3bece64c3caf3aebU,
  0x3cf6800f3c38f71fU, 0xbae168adbceef6b3U, 0x3e5a40a0bb24f704U, 0xbb1504203b6d43f1U,
  0xbc7feff53bfbf73fU, 0xbc8813ff3c9db1beU, 0xbb0d5ac93c401039U, 0xbbb461c73d26b925U,
  0x3c847392bc15f3d8U, 0xbd67cc563cc4bd8cU, 0xbbb9d8c63c681d8aU, 0x3c9c40e5bb1ec7f8U,
  0x3654fcecb7c7b336U, 0x371cb299b61acddcU, 0x37295906372de61cU, 0xb64e4c7c33234300U,
  0x37765283b5c2a470U, 0xb50c20c8b7920ac2U, 0xb7d9a40eb6b0a006U, 0xb7689dd8369fb82cU,
  0x371c7f833773b6bcU, 0xb7634a503730b7b6U, 0x373f3526b7afb300U, 0xb7e81e0a3773f83fU,
  0xb77b252537299efbU, 0x36c1ea98b74e87c9U, 0xb71cf8e236ff354aU, 0x3738f35636de216eU,
  0xb7305f3634e6f4e0U, 0x358d079eb7d38428U, 0x370416b2b7e08ea6U, 0xb7f32afbb72d8f72U,
  0x377bd57db72a7388U, 0x3720abfe377740cbU, 0xb59ca2d83781d160U, 0x35cf1b60378d14dfU,
  0xb69cc61cb5579300U, 0xb65e5238b6db3eedU, 0x373621853605ffb2U, 0xb7715b02b72867a8U,
  0x37d611803814e95cU, 0xb5304facb7931be8U, 0x37813d5a376e7446U, 0x37315907b6fd8968U,
  0xb7bd54253401cac8U, 0xb6e77303377817afU, 0xb666457436e522c0U, 0x378a0727b787dbb4U,
  0xb6c074c0b687ae90U, 0xb78505f937416784U, 0xb5c55fe8373433f0U, 0xb6f1f8a936af070aU,
  0xb790f2a337013a4eU, 0xb5ecc75cb785434bU, 0x3736c22938233cdcU, 0xb7e4b126b79162d7U,
  0x370b517bb6bb00a0U, 0xb596e1e837cf3cbcU, 0xb6daa6b1b4dc01beU, 0xb7846562b7ce51a6U,
  0x364972c835ec1ef8U, 0xb5068c50b68a8930U, 0xb66d9d02375f861aU, 0xb741fa3c37945c0fU,
  0x374ccac0b60b2272U, 0x36f70db33635b6e0U, 0x369e9cf0b79d3b3eU, 0xb5de98c0371c6c1cU,
  0x374343d5358e5828U, 0xb7a8d3ca36951cadU, 0xb74e1ecbb6ec72a8U, 0x339df080379c6f15U,
  0x370fda4eb708a2e8U, 0x378239deb693d97aU, 0x37a21f64b6526288U, 0xb7433a68b709bcbaU,
  0xb7447148b788c082U, 0xb6bbd414378d1e00U, 0x360b1c4c359250f8U, 0xb591d4a037684bd2U,
  0xb6d4c270b6ec9644U, 0xb770d5d236932716U, 0xb5704d703830123bU, 0x36858189b6f4beb6U,
  0x36358528b6164048U, 0xb77523473778ad67U, 0x35bd16c036c15c90U, 0xb78d05c4b647b6b8U,
  0x3724242c372d5b5eU, 0xb6cfa019b7d2e09eU, 0xb787ffdeb6cc52d1U, 0xb6823fbd33109c70U,
  0x358c863836d5fbecU, 0x350f549037387853U, 0xb6ca749335af2accU, 0x36c60598b6541518U,
  0x37fda7c0b82a16a7U, 0x367e768437cd4675U, 0x3726ba4fb5f3e682U, 0xb77544fcb63a8b3eU,
  0xb60b87ee36bd0f01U, 0xb6599084373930abU, 0x36f62fc4b65da80cU, 0xb79725163717f7c5U,
  0xb710ffcb364ccb58U, 0x3754a22c34913a00U, 0x3741e096370c0f0cU, 0x3605e910363b85beU,
  0xb742343b35388048U, 0xb743fd38b756fe61U, 0x375c77d2b7871e24U, 0xb77215523785c44aU,
  0x38060e89b8159605U, 0x3769641cb732aabbU, 0x3778d05837a15f18U, 0x379298edb70dca0aU,
  0xb75618afb73d559eU, 0xb598d518b6af3c72U, 0x361ecb04b75d08b1U, 0x33e65e40b5dccb80U,
  0xb704234837177c56U, 0x3707af7ab698c49aU, 0xb74e7c0a36979200U, 0x37c8d21e3681d282U,
  0x37750eaab79410e3U, 0x374ff12bb759ad68U, 0x375931beb6130b88U, 0x3595e27837651017U,
  0x37d620a235a5a4e4U, 0x3767a5983770e1aeU, 0x360de9d8379ad50bU, 0xb6d7a30834fba270U,
  0x37d97d27370b1bdcU, 0xb619e51cb7af347cU, 0x37398686b74c6727U, 0xb77f20e33728cdf5U,
  0x379b331e379203a6U, 0x37cf6eb93695ced0U, 0xb79491ea3835a4f5U, 0xb6fac52ab7490a14U,
  0xb5f64164344f2b20U, 0xb6607596b6c3b406U, 0x378958f135638580U, 0x364606f0b77bbf16U,
  0xb68f0ca4377738d6U, 0xb7ccf36337d400fdU, 0x36d7e7aa36f5de71U, 0xb71d9e4933337400U,
  0x368ae87a37e10112U, 0xb6e3edf837b41e63U, 0x373de6b637487946U, 0x37098e78373d4aa1U,
  0x372f229c37662720U, 0x3772f8f23711dbf4U, 0xb6001228b77ee76cU, 0xb6cf0dc0377abae3U,
  0xb70d4bd0b7037a12U, 0x3789bcc2b717fa05U, 0xb732ff2eb6f6a574U, 0xb7687a0ab7d8449cU,
  0xb7a075dfb7358014U, 0x36f63b7c36b07d0eU, 0xb7b3ccf4b7bd90c2U, 0x37740c46b72cacf2U,
  0x376249ecb7125b87U, 0xb657f63c36da41fdU, 0x3709c272b688672aU, 0xb630eea037383b9aU,
  0xb7866b0ab788f7acU, 0xb594e9a8b7f39fb4U, 0xb78a3ab3b77cc8e9U, 0xb6b5c3b8370a9545U,
  0x368806f4b685c34bU, 0xb4746a0036b43b29U, 0xb55dda4036391ca8U, 0x37435d7eb77b60bcU,
  0xb61de7c4375e77eeU, 0x37625f053797c239U, 0x3750ff3db7688881U, 0xb75e016e36517b20U,
  0xb7cdc9e4380ede36U, 0xb7221b15b782ad05U, 0xb77e97f436cd22c2U, 0x378332b0b7a51282U,
  0x3693e2b4374145cbU, 0x35ad6dc83748d37eU, 0x37e42629b745b104U, 0xb712614d37916f30U,
  0xb765b6ed372ba5c2U, 0x35cee5f636f11d3eU, 0xb7b33173b715d15eU, 0xb791601836f1239cU,
  0x371d227136be7098U, 0x37cf581136e7fe6eU, 0x37a850dbb6bbc15bU, 0xb7067d61b698e87dU,
  0xb6dbc90ab6132b7aU, 0xb6a0fb26378cf8f5U, 0x373a5d56b648e8c6U, 0x3646bc92365bf1b0U,
  0x37b1401e36af1a82U, 0xb6c40f8537b4eba9U, 0x3761da23b6b730a4U, 0xb74fc6c9382b53b0U,
  0xb75a8c40b5e2424bU, 0xb65855a9b6050f56U, 0x35941a10b7949880U, 0xb6e5ca59b6f0c384U,
  0x36e3b7ec36f14f21U, 0xb79fdd14b690990cU, 0xb6ea74e1b75531aaU, 0x35e8ce60b70f76e5U,
  0x3626335ab7ba6724U, 0x3690584033891680U, 0x3725e95537fd2659U, 0xb629f69238296ab5U,
  0xb6b893c4b62b4fb0U, 0x3741f1acb6f3e5a0U, 0x3736719cb7103957U, 0xb70999a537719462U,
  0x358bb928b67d8988U, 0x37655bf8b658d150U, 0xb715d06d37d192f9U, 0xb5885b80b797dd18U,
  0x36826c33b72efd99U, 0xb60761e6378530ecU, 0xb67a256835dc44b2U, 0x37434f5037af92f2U,
  0xb6a5abb8373082acU, 0x37a0962cb7ddf5e2U, 0x35edede8b73ebcbaU, 0xb6f3b564b5afdec8U,
  0x37698a22b69d4856U, 0xb70af91eb70296a6U, 0x3588bca837f00b68U, 0xb7a96a943599b668U,
  0x36d67036b69b61a8U, 0xb595fd0037a56d76U, 0xb7cf70cab70d8a34U, 0x3785e9ce365e4fb0U,
  0x35b75c293619ea64U, 0x366eed6cb744cb35U, 0xb51fabb0367a0c5cU, 0xb7290f56b74bd544U,
  0xb5fc0b023663466eU, 0xb754bde737a5428dU, 0x36a0b9d237571cc2U, 0xb7ac3ec2370882d3U,
  0xb6dfb8443759dacfU, 0x37015f88b6ec5a56U, 0xb7258f9cb74633a8U, 0xb4e0e05c36f7d882U,
  0x3732fa523626686eU, 0xb54915c035c07ed0U, 0x36f6e04db6c995c2U, 0x37a63d21b62a7a0cU,
  0x3732844d375a3777U, 0x3707d47d377a5a07U, 0xb7cc7d0f376625beU, 0x362218e8351bb1b0U,
  0x37047663b758094bU, 0x3789abe8b6fdab2cU, 0x33cf758037a427e8U, 0x3823306c3606035cU,
  0xb725559c351170a8U, 0x3705c2df37a054edU, 0xb802cddbb764b4e7U, 0xb7579df2b741beebU,
  0x365123d4b7590bbcU, 0xb78fe75536db2ee2U, 0x378a2e80376218a0U, 0x3725203a37341348U,
  0x378cf8fab83ad092U, 0x3787692eb78bbff5U, 0xb76ddd9ab7070dc6U, 0x377def59b73bb155U,
  0x35e96e7cb61adf74U, 0x37e798a2375ce16dU, 0xb512c1e0378e0c0cU, 0xb6c90e66b7077e80U,
  0xb7c015aab72e07f6U, 0x36b8837036116bb8U, 0xb71653be370b148bU, 0x372b7cc0373fd67fU,
  0xb73abbd137449435U, 0x3441890035ea8ad0U, 0xb663b30cb7897a0bU, 0x368cd5b6b7475282U,
  0x36f79d28382551d1U, 0xb71ca98934f65c20U, 0x37f1a78c378f2926U, 0xb72663feb76de342U,
  0x370dff81b5e67f75U, 0xb66c85da3696b5d0U, 0xb719140f37320d3bU, 0x36298028b7dab518U,
  0x3838be91b7876614U, 0x3759fd2a379dadfdU, 0x3528ddc4378e716aU, 0x37de048ab7857696U,
  0xb7519dbeb61bd790U, 0xb6b7e68cb6dd6b3cU, 0xb7473ac236aee010U, 0xb7ba7b6837631d7dU,
  0xb6963570b51230caU, 0xb68383f437231fc2U, 0x3784b31bb7253b04U, 0x35c76070360bb430U,
  0x36f8d298b6a4f226U, 0x3786e424379117d1U, 0x366a6b7cb5f5ce7cU, 0xb5d98a10b6f4b77dU,
  0xb8265d75378ac082U, 0x370c144eb77e194bU, 0x37c4f661374d126eU, 0xb6ad130635b3c250U,
  0x35b6592837548660U, 0x3747b439b68e56f0U, 0x3797ba70b70743aaU, 0x3785fa2f3535c991U,
  0x351ce09435ab9668U, 0x373b29f03803ab0aU, 0xb41b238036890db1U, 0xb707f1ba36e629b6U,
  0xb6ee88d236cfd44cU, 0x3795c458b79ae708U, 0x354db8ecb6d052bbU, 0xb2cf9a8037731a61U,
  0xb671bcdc35b9adceU, 0x370603e2b6928c41U, 0x36a62ba7b6226b3aU, 0x363efc7837ec0ca6U,
  0x37dd05293707f2fdU, 0xb7e08949b6739632U, 0x37579c9cb7115fb4U, 0xb75fdb1cb6b77b74U,
  0xb62904c436ac8af4U, 0xb6379140357182d0U, 0xb78d97ca377366beU, 0x359b9eaab7b768c2U,
  0xb6f201eab62197c8U, 0x3797c514b75c5383U, 0x37725176b5ed8468U, 0x37269f51b714e838U,
  0x365969d5b627fc69U, 0xb7363d20b31a3800U, 0xb74113183782739cU, 0x35e08d24b78e89ecU,
  0x368dba34b6a4c47eU, 0x3704cc5737d3b3acU, 0xb644e8b436d8d39eU, 0x37302ac837966960U,
  0xb7641e063755f7faU, 0xb73f0af133d62d40U, 0x35d54a3ab78d365eU, 0xb774a7d6b46da180U,
  0xb5934d903795394bU, 0x36df1be8377881b4U, 0x3509d660b72dd440U, 0x3641300c37cebb1eU,
  0xb5a8ff1037548088U, 0xb7011033369b4072U, 0x371c775836b2e992U, 0x36c25951b7232512U,
  0xb72aa0e5b6a31390U, 0x37333b87377f0a2eU, 0x376619483721c126U, 0xb510de50b7d0c20aU,
  0xb6b0e771376a2bb3U, 0xb219040034dfbf42U, 0xb77f9d5bb7b0b89eU, 0x369a400c37319ac8U,
  0xb7565095b6319050U, 0x34c9be5037d11810U, 0xb72367743588c008U, 0xb71f72a2b50506b8U,
  0x37443156b70813e4U, 0xb686cec8b6998dc4U, 0x3757af16b7972950U, 0xb786c40537b06654U,
  0xb6c5a3b736457ac8U, 0xb7c4129c37180fc6U, 0xb782dec6b722b184U, 0x36e5272ab7021468U,
  0xb76b245fb7290118U, 0x3615acd836e161b6U, 0xb738619ab76541c2U, 0x33c002403692794cU,
  0xb6695558b6f889e7U, 0xb77d823bb718172eU, 0xb6e2cc3c35debb08U, 0xb6811664370e503aU,
  0x37095178b7bd05e2U, 0x36b2f55c37a07590U, 0x374a4995376361d0U, 0x378d1734b6d216fcU,
  0x37c0105636b8708cU, 0x375ed24ab7175f8dU, 0xb75492b0b76aa9daU, 0xb72c2f4c378c8a04U,
  0xb3c266703718028bU, 0xb7263ed3b60eca7eU, 0xb723700cb751c048U, 0xb78c186337cc15c0U,
  0xb681cc6c37863d66U, 0x376ff9913771be18U, 0xb76b0a4a379039c6U, 0xb63374d0b7a9d3beU,
  0x3791489d35b71268U, 0x37600568b4bf50e0U, 0x37538fc23743ea6bU, 0xb70a6f81b6bfdab2U,
  0x3707683136ee83baU, 0x34ef45203755c1d9U, 0x379bb096376e7182U, 0xb540368837195a43U,
  0x37942b23366a5234U, 0x37de911b36fcfec0U, 0xb38c004035be1710U, 0x369d57f8b74f77f0U,
  0x348bba9033da9980U, 0xb5082a903655a710U, 0x37a45373b73546fbU, 0x351235b0375b8130U,
  0x37352095b75f5cb4U, 0xb73278d6b7e0dd8bU, 0xb760e394b50e7300U, 0xb74f9631380c5c66U,
  0x36a76918375864adU, 0x37f1ff6bb7bdc4acU, 0x35ee8928b69e9948U, 0x373c471ab79912acU,
  0xb702c51137e594a4U, 0xb605ad0eb7cf7ad0U, 0x33f4f180b4c9d200U, 0xb5ad2b6bb62a0fc8U,
  0x37829facb7510456U, 0xb7c25eeab6f9948eU, 0xb71ee25ab7764f0aU, 0xb6e5aedeb6e88facU,
  0xb7d55bf437229455U, 0x3443ce2036dc9f0bU, 0xb7418445b7da9a0cU, 0x3648c47935e5ba30U,
  0x37ab696db6ac01bcU, 0x37c62cd2b728ce6cU, 0xb78d8da2374cbc00U, 0x37524c04b73ddfe3U,
  0x373bca16376702f0U, 0x37ab22873699c37dU, 0xb6a53264b74c7055U, 0x36ec3d8a35957900U,
  0x378eeed0b742d576U, 0xb6d516e9372a5e9eU, 0x3560620cb40bb540U, 0x36b478f637568d88U,
  0xb7e1f27bb79c2d95U, 0x379819c6372dd3e2U, 0xb7a3e1deb7d1c694U, 0xb73d4c843762ae30U,
  0x36772ef037680a10U, 0xb709d90cb5fdb894U, 0xb700073536a651d4U, 0xb6df41bdb6c2e1b2U,
  0x34947c283719f308U, 0xb6826624b6d82dc5U, 0x3440a3a037daf80cU, 0xb71aef3fb6c3682eU,
  0x37148d66b71bd66bU, 0x3706f17c368eed7cU, 0x37917021b721e2a0U, 0xb7316aab3815c9c4U,
  0xb7aedcfa37799ff6U, 0x366bc6f8b79fcc7cU, 0xb69b74a63659ee28U, 0xb787836eb7a20102U,
  0xb6bd258eb794ca2cU, 0x37047d8e34f465e0U, 0xb791ce1336aee0a1U, 0x371aea60b7f60a1fU,
  0xb516b0da362ddf18U, 0x3614858a374f90e8U, 0xb7643fd1b7082b7eU, 0xb6ab2e2fb48e6780U,
  0xb71ec4e0b6fb43ecU, 0xb723fe16374b43c1U, 0x37036417b71de586U, 0xb7e9f352b783236cU,
  0x372ace8eb794e1d8U, 0x3811c322b65b76c8U, 0xb7466bdfb6d9ec24U, 0xb7b683f1b5f0ce60U,
  0x3645e814b7847522U, 0x36151a1c37c5a8deU, 0x371b93123774e937U, 0x35f0e820b7601388U,
  0xb6c91db7375dae6cU, 0xb571e2b0b73e473cU, 0xb728076fb78ab2b7U, 0x3773b36c36d4a712U,
  0x32a8d800b50b3e00U, 0xb6f2ffff368053e4U, 0x37ce95d23d6a7e0fU, 0x37a1ebe136233460U,
  0x36b94671b67a4d49U, 0xb8122724b77c31a2U, 0xbda63fc2370ccc64U, 0xb74d9642375168eeU,
  0xb718dd03b7cb2ae2U, 0x37e4680db6e22dc8U, 0xb7b35690b6ea88f2U, 0x366961a03d09bd30U,
  0xb722eb21b5ee30c8U, 0x3719368eb79262aeU, 0xb813633ab71881fcU, 0xb74a1b62b75f11b4U,
  0x3731287db7463a45U, 0x375e12cb3519f530U, 0xb745d6ecb61683fcU, 0x37a9e6cc365cc824U,
  0xb76a7190364a0dc5U, 0x37522d2d376850acU, 0x3660e2e833e91900U, 0xb65bbbdeb4f07780U,
  0x36f9ea9633eb9a80U, 0x370f77eab7326420U, 0x3735d03837e4a367U, 0xb693d03c375232d8U,
  0xb7399b52b7853398U, 0x376b1a68378836c3U, 0xb4c630403817296fU, 0xb3be568036f5c48bU,
  0xb39d6a60b69ad6f8U, 0x3794dfa337a0e0fdU, 0x380c25243662f28cU, 0xb7d1d6b2339f2100U,
  0x3744833937e65c02U, 0x367e341d3606df80U, 0x372d8b14373088f4U, 0xb7bc20b0b8cadfcbU,
  0xb4d93a80b7ba7c76U, 0xb7844c8a369c6095U, 0xb6bd157436362a20U, 0xb695e74db7f41b76U,
  0x35ee19a0b7b16650U, 0x367322353766875cU, 0xb7500d5637453b4aU, 0x372c3220b79646c4U,
  0xb6ad68a3b71ecfc2U, 0x367edf7937826c84U, 0x36a985b4b7072c58U, 0xb62bf0d6b75e5178U,
  0x37b79d4cb6174d68U, 0x36aa90a534c82b2eU, 0x353b23fdb69cabbcU, 0xb7a41891b6f515b2U,
  0xb5e0aa983757bc52U, 0x361334b8369b91d0U, 0xb6884d203766c3e5U, 0x372cd6c7b71b341aU,
  0xb52cf790378c29d6U, 0xb6cabaa6b5849aa0U, 0x3747f9a6b4aa70b0U, 0x3722a560375efb06U,
  0xb748131eb6a0963cU, 0x35b097fab799c07eU, 0x361eea2137455f77U, 0xb303b700b7563910U,
  0xb6f5c3e2360bc26cU, 0xb78b4c36370d0ce4U, 0x3730a123369bee03U, 0xb7b1258eb6e58c64U,
  0xb76a32e0382b7e39U, 0x373b8b8237747718U, 0x3732c3c1b76ac4daU, 0xb55f8da0b719872eU,
  0x370110f4b752a22aU, 0x3692a7ce36c41c31U, 0x36e003f635ac4c5cU, 0x3787b638b69758f8U,
  0xb7ba33b537392452U, 0x3733e506b5ba878cU, 0x375bfe3bb5a690b4U, 0x3705a3f9b7176b1bU,
  0xb678dfe4b6ee8848U, 0xb5838474b54e3a70U, 0xb67b54ac37863b7cU, 0x361de2acb68de3caU,
  0x34724c103793fe6aU, 0xb75c6b9b36df7ed3U, 0xb611378e374bfecaU, 0x370f793537606441U,
  0xb7dc0306b7437937U, 0x36e55620374c3035U, 0xb61a3b7837afc5b8U, 0xb675be6436aa1376U,
  0xb742bc8636b30ebaU, 0xb5e4dd1837cefba6U, 0x343deee0b4571f40U, 0x3671d1ccb5396330U,
  0x37b45615b7704f32U, 0x372fbd1eb40ab700U, 0xb77ff1f7b6108714U, 0xb7aeac04b5c739e0U,
  0x375acf6eb711469dU, 0x36ea7a4f36d5a36aU, 0x376484df36b0d793U, 0x35576ce0b6936dc4U,
  0xb58077e0371d04edU, 0xb7b01812b58ac218U, 0xb38fbb20b7459018U, 0xb787092d37edc450U,
  0x360881b0b7a00feeU, 0x379214bcb6cb2814U, 0xb6966ab8b94bf247U, 0x3795432f336c4800U,
  0xb78ebd42b69a075eU, 0xb77c716bb6ad57f4U, 0x3e2a26dbb7a71e06U, 0x36659000370ddc80U,
  0xb78f09f2b7caff58U, 0xb7115de9b7be3b2cU, 0x35b181a8b6be4eb8U, 0xb51be870b9a8ae48U,
  0x377a4ee0370de5eaU, 0xb6298434b737dda5U, 0x375b331ab6d14e40U, 0xb7a4a3bab74a455cU,
  0xb6c1a7ce37923c2eU, 0xb781102ab7311406U, 0x3717884f37935d30U, 0xb647c2deb72e3c6eU,
  0x360f1b2637875b00U, 0xb6cf5a1633b2e040U, 0xb7a65124370cc71cU, 0x375a37fbb6675642U,
  0x3725fec2b75c74bfU, 0xb6a000623770a650U, 0xb78785cf34c107b0U, 0xb7b1781d3666f7b0U,
  0xb65f5a64b75a4ff4U, 0xb6e709ceb731c9a8U, 0x3762857a36f44dbbU, 0x3658d7ad36f3cacfU,
  0x36ba76fcb46637a0U, 0x37501b47b78f0d19U, 0xb6c7e64a3701bc1cU, 0xb79b3504b71e2ce8U,
  0x37057e28b72886caU, 0xb79c3bcf370ec9ccU, 0x3725f71b378ea110U, 0xb6577e3cb76fb6eaU,
  0xb56f5688370d307cU, 0x3605d415b6806723U, 0x360dcebeb6464d73U, 0xb65eb041b724f682U,
  0xb729ff32b55ebf1cU, 0x37ec95ac3434f040U, 0x361da680b7bc6174U, 0x361c2e84b7eb32f6U,
  0xb53612e8b60ae34cU, 0x368ee0ce376e006cU, 0x3780cf92b69f25e0U, 0x3768837d37290689U,
  0xb693cbf5b7d5c293U, 0x372b829eb82c5b72U, 0xb7607d7b35df5e31U, 0x38074d7eb7916226U,
  0xb735e2beb68a72f8U, 0xb64c3c5b37461047U, 0xb68af04cb731e0f9U, 0x37ac6b12378a0cdcU,
  0x36d5f7843713a3e1U, 0xb717678db79408aeU, 0xb71ba384b6f95b28U, 0xb75492cb37189234U,
  0x3756be4b350409e8U, 0x34b73e6037916568U, 0xb67ffbdcb696abb0U, 0x3796a5b63818f2d7U,
  0xb647f4a836f2475aU, 0x36776b8837ec124dU, 0xb719938bb77c2e8eU, 0x3630a02636dfc5a7U,
  0xb7756648b780b58fU, 0xb7207da4b70b513cU, 0xb64088a4376f59aeU, 0xb83d6fa0b6afc6a0U,
  0xb6f7d3d0b75406e6U, 0xb75db0a0372cdad7U, 0x37c5b6efb714baa8U, 0xb70eea56b6ae7534U,
  0xb71eb38837c4f3eaU, 0x375fded3b5996d04U, 0x36c034a1370576c0U, 0x368d3c77372b3269U,
  0xb796ad7bb399d280U, 0x370dfc1f36a6a028U, 0xb6bdf51db7778597U, 0x338c7a58378f4e60U,
  0xb6502bbe375f55feU, 0x36900b22b7885ac7U, 0x3649416c369b23f0U, 0xb6336fc4b690ba3aU,
  0xb715c597b5029f4bU, 0x37933cc0b657f5d4U, 0xb66c54da37603536U, 0x36fb32d1371245bcU,
  0xb6c3889a36010e82U, 0xb7487b32b75296fbU, 0x36c682f5b7d131f0U, 0xb71e8bcdb6e16f18U,
  0x36fc8593b737a7ccU, 0x37358f92b7861df8U, 0x37340051b78784a3U, 0xb6d27ffcb71ed6d8U,
  0xb752986cb695705bU, 0xb670b414b63db37cU, 0x37cbf79f377fccf6U, 0x362b03d4b56a9154U,
  0xb757a09ab7bb003bU, 0x3595275db6ee8ef8U, 0xb64f840cb63ee3c4U, 0xb792fb81b780fa8cU,
  0x3721ccab3749fbaeU, 0xb7855b9c36d630f8U, 0xb73b4f3537093f0cU, 0x36af9a7d370a20a6U,
  0xb60b1848378624faU, 0x363e164b36ca44d5U, 0xb76f5fe4361287c0U, 0xb701da7a36bafaa0U,
  0x35c88bb835d11a24U, 0xb4decb20b74ff2bcU, 0x36f3bdaeb7a27d44U, 0xb3f5a90037751726U,
  0x369e637435b2c63cU, 0xb77e832c36f8d8b4U, 0x379c8ff335c473b0U, 0xb65bad84b754d5c2U,
  0x374c7ba03508cdf8U, 0xb70ced2337e3517eU, 0xb5d69160b5606ad0U, 0x35f7548cb7d3c7d4U,
  0x352c1770b71647feU, 0x373cc97a36a2d1ccU, 0xb73460df35fe6f18U, 0x36bcdd68b59fd956U,
  0x3625927eb7958c69U, 0x366d7734374bed92U, 0xb69d658c37031f4cU, 0xb78f643337680d5fU,
  0x37c72fac3790636dU, 0xb773a22535bb5f88U, 0x3578bc90b6024074U, 0xb5ae196cb71a3139U,
  0x35137610b65b052cU, 0x36804d83b6e77fd0U, 0x37c308e6b7c0d824U, 0xb79bb68836d75f10U,
  0x37583f5e368e0032U, 0xb5235fd836dcae18U, 0x357d1a00b74a9bc2U, 0xb6658e9c371b05d8U,
  0xb5fe3850b6c56525U, 0x364a5b50b7db3c46U, 0xb618599eb7314b4bU, 0xb7863184b7710744U,
  0x3709f65137628ef0U, 0x37062d5837cabb99U, 0xb6747484371cfe39U, 0xb5304a08b75bf05bU,
  0x36bd9113b60b37e0U, 0x3816f399b72b95d6U, 0xb70b85bd36b3453cU, 0xb6da8a79b7191200U,
  0xb7e40487b48ce0c0U, 0xb7309c9137129523U, 0xb7030bbab69cbc4dU, 0xb70a15f6b718cc85U,
  0x371e126737a539a2U, 0xb7e6a9123831f93eU, 0x3722cfe8b77e94f3U, 0xb753c04736aba2f5U,
  0x349db2e037ae90e8U, 0xb79019f2367eda20U, 0xb7313a36364be92aU, 0xb782422db7897f8eU,
  0x37de02a4352c7680U, 0xb60df34436e0cedbU, 0x37957950b7847507U, 0x3708722936841230U,
  0x3653b199b7fc57b1U, 0xb65bd134374340f0U, 0x371fa78737ed372cU, 0xb79d424237800a1cU,
  0x375150923741a626U, 0xb7a644b6b3fb0d00U, 0x37b02ade366a5be0U, 0xb6e4aff2b69ffa7cU,
  0xb6d83084349b99e0U, 0xb6587d3fb7573cc9U, 0xb74c3441b6d098d4U, 0x376b6c14b6fabd97U,
  0xb6f6636cb5ab1988U, 0x3765a67bb7b8f631U, 0xb6855ec5b6c4c574U, 0x36855eb3b69732fcU,
  0xb69c66ceb680c790U, 0xb79e340c36641630U, 0xb5a05c7cb726ab5aU, 0xb70be734b75de26dU,
  0xb6c0d26237287359U, 0xb73afc9cb79a163dU, 0xb6308d0c36ce1424U, 0x3791215cb7e97726U,
  0xb6a0eb14365f0fdeU, 0x37405692b71576aeU, 0xb7f3b203b6579ff4U, 0x37d3f3d73523ab95U,
  0xb723f8e6b6d47a9eU, 0xb4e016403740ff20U, 0x3718e2a33734bf48U, 0xb7148ffab7354ed5U,
  0x366b4201b6d1348aU, 0x373e4d86b777b0f1U, 0xb7187006370a556fU, 0x37d2b93836e8351eU,
  0x379fbdad377851b5U, 0x37045449b758e1faU, 0xb7dd5c40373f6e9eU, 0x36ca37f8b7606c1fU,
  0xb73d1f2a370e6c66U, 0x37dd6116b73e27f3U, 0xb64707b2b69659d4U, 0xb6779094b7ab184dU,
  0xb6e58ba0b7db4e29U, 0x360664d4b7868af4U, 0x3757f717396b0dd9U, 0x36e8d14e373ee077U,
  0xb805b2fe375d42cbU, 0xb4fa68a0350f46b8U, 0xbd5fc54337361e72U, 0x375d23bab6ae95aaU,
  0xb712794535da6a10U, 0x348f3720b786ad93U, 0x37af1e66b699c4b0U, 0xb7aa8a843dd35264U,
  0x36d0f93137e09e08U, 0x35106ae0b72e3103U, 0x36db610937868a46U, 0xb72ea2c5367a84bfU,
  0x3761018c377643c0U, 0x378c437ab71ea00cU, 0x378eb53ab5d46654U, 0x371b843db7643112U,
  0xb7cefcefb79855c8U, 0xb592ca80b709b599U, 0x37790bc5b6dbbdb4U, 0xb6a096aab5d9a59aU,
  0x36bda7ea37910f68U, 0x376608e4b55578e2U, 0x37a67cd8b71a6ceaU, 0xb5dc9c20381953e0U,
  0xb6c8399c378d2915U, 0xb51645e43796a2deU, 0xb6dc24ceb8254164U, 0x37788affb744e464U,
  0x371f98ea37602352U, 0xb76e6fdab545f8e0U, 0x375dede0353a58a0U, 0xb7d0c7ec36de03e8U,
  0x3795538734161e60U, 0x3680a1ec373e1d8bU, 0x3761e6a03795d5ebU, 0xb6dc708c37d940ccU,
  0x3533994837150dcaU, 0x378e0b68b6c4ab64U, 0xb6dc7e22379e551eU, 0xb4e4246835295f78U,
  0xb7245ab6b7e1a432U, 0x379e6ebc34d5b1b8U, 0x37a0265537cb7afeU, 0xb4ce1d00b746a78cU,
  0x35efcbe036f1f114U, 0x370cccb8b5214e2cU, 0x34bb2870b754477cU, 0x36a2f8063758da62U,
  0x3728abaa36636dc4U, 0x372faf2c3730906dU, 0xb6ac8fce3593f373U, 0x36662813b70699c6U,
  0x37922deab6931d83U, 0x37c0b7ecb760e1e2U, 0xb6e9d278383149c4U, 0x378687bcb604ff9eU,
  0xb6d581bcb78103ecU, 0xb6c74014b60057dcU, 0xb64e4ef4b6386a9cU, 0x3773578ab70dc29aU,
  0xb5caacf8b726da5eU, 0xb70d88ff363a526cU, 0x37801af236db5b99U, 0xb68db3c3381984e7U,
  0xb517b7da36328cccU, 0x37cedb9835a42188U, 0xb629e33eb4017ec0U, 0xb5042d28360cc86aU,
  0x375881d636fa412aU, 0xb7539b40b734a94bU, 0x37808961b667a7b0U, 0xb6abbd83b7b406b5U,
  0xb83681e5370e4ef6U, 0x357aa398b71bcaebU, 0x37aa1fc8b766178cU, 0x3797c21c37a66ed2U,
  0x3687832436ff1060U, 0xb60b8b40b62dcd21U, 0x371490e8b8082e62U, 0xb79f8056377eea40U,
  0xb6c063e837b88ab0U, 0x3707261836a93020U, 0x3788121cb6ff2c52U, 0x36e0f587b752b168U,
  0x37c2b4beb7393dacU, 0xb6d92184b7095e32U, 0x374adaacb6c0fae5U, 0x3749b5283743744dU,
  0x3646fb90b38f4d00U, 0x36f74812b5924d0cU, 0xb662fbd437585c2bU, 0xb5830ff43780f730U,
  0x36c618c8b791c159U, 0x36c8f47ab73b17a6U, 0xb691678cb793ebaaU, 0xb70fab65b6d233a8U,
  0xb77ea5bc371e9727U, 0xb7499a993631dd90U, 0x3781b7c036a2ff58U, 0xb684d86a375bced0U,
  0xb69dcb7235bfa70cU, 0x37a46cb936899d73U, 0x3794cfd6b760603dU, 0xb6c6f5e23662dce8U,
  0x38259cddb685715aU, 0x367274ccb7dbc8d8U, 0x37021bc3b7645a1eU, 0xb5432170373db1dcU,
  0xb336b180b5247cf8U, 0xb57c7f70b625cde0U, 0x375bccc03807f562U, 0xb7e24e6eb74f7b57U,
  0xb782b65236a9890cU, 0x3786cdceb7d7de12U, 0xb691f7c6b584eb88U, 0x3764b726366cfae4U,
  0xb6673988b636c758U, 0xb7c7e18936ea59f2U, 0xb5aabba0b6b43b94U, 0x37851adbb5560a50U,
  0xb7139c3cb4e9f0a6U, 0x37a516b6b5d5da4cU, 0x37876b76b60e179cU, 0x373db50436490b11U,
  0xb6f8d2a8b74dea5bU, 0xb70d0536378cbf78U, 0x36c7b97d3652833cU, 0xb60d793c37914c30U,
  0x37021918b6651da0U, 0xb799e358354cec90U, 0x37c450a53760c8ceU, 0xb7ab06fe3707709fU,
  0xb6f2a783b797ec29U, 0xb59a9850359d8444U, 0x37e0222f37aff5d1U, 0xb74ac826b794d532U,
  0x375240fa34f27e60U, 0x37185cc5b5bfe910U, 0xb68e413238175de9U, 0xb686085bb6372bf6U,
  0x35beeefc352833d8U, 0x36849704b78df72eU, 0x371df9eb369e7cc1U, 0x381a813d37522568U,
  0x37ab1495b7934542U, 0xb542c0e8b50fb5a0U, 0x375c3982378add2bU, 0x376d52ba382b6861U,
  0x37034852b52043f4U, 0xb70d2290b71453f7U, 0xb7a19111b61c4250U, 0xb75f7139b738ec78U,
  0x363de90a35aceb40U, 0x379e5ebc36cafb71U, 0xb787ec02b6370cbcU, 0x36cc9efb35d67628U,
